[PAD]	0
[UNK]	0
[BOS]	0
[EOS]	0
[SEP]	0
[CLS]	0
[MASK]	0
▁t	-0
▁a	-1
he	-2
in	-3
▁the	-4
▁s	-5
re	-6
▁w	-7
▁o	-8
is	-9
er	-10
nd	-11
▁f	-12
▁m	-13
▁b	-14
it	-15
at	-16
ing	-17
▁c	-18
en	-19
es	-20
or	-21
ou	-22
▁th	-23
on	-24
▁h	-25
ll	-26
an	-27
▁and	-28
▁to	-29
▁of	-30
▁p	-31
ar	-32
▁d	-33
ed	-34
as	-35
▁in	-36
▁l	-37
▁I	-38
om	-39
▁is	-40
ic	-41
▁g	-42
le	-43
▁e	-44
▁T	-45
ot	-46
▁n	-47
al	-48
ut	-49
st	-50
ct	-51
il	-52
▁it	-53
▁be	-54
ve	-55
ie	-56
ly	-57
▁mo	-58
▁re	-59
▁on	-60
▁that	-61
ver	-62
ow	-63
ad	-64
ent	-65
▁he	-66
ion	-67
im	-68
▁this	-69
ay	-70
▁wh	-71
se	-72
▁st	-73
et	-74
gh	-75
id	-76
▁The	-77
ch	-78
▁was	-79
▁A	-80
▁mov	-81
▁y	-82
ith	-83
ilm	-84
▁S	-85
all	-86
▁for	-87
▁film	-88
▁as	-89
oo	-90
▁u	-91
ce	-92
▁with	-93
▁an	-94
am	-95
ke	-96
ld	-97
▁se	-98
ir	-99
▁movie	-100
ro	-101
▁you	-102
▁B	-103
ri	-104
▁ha	-105
her	-106
▁M	-107
ur	-108
▁li	-109
▁but	-110
ra	-111
▁we	-112
▁not	-113
ally	-114
ill	-115
▁(	-116
▁C	-117
▁H	-118
ter	-119
▁"	-120
▁W	-121
ck	-122
▁are	-123
▁sh	-124
ome	-125
▁his	-126
▁ch	-127
pe	-128
▁D	-129
ers	-130
ould	-131
▁at	-132
ul	-133
▁have	-134
ght	-135
em	-136
▁su	-137
if	-138
ust	-139
un	-140
▁j	-141
▁fr	-142
out	-143
▁sc	-144
▁act	-145
▁do	-146
ain	-147
▁ex	-148
ble	-149
ess	-150
▁who	-151
▁one	-152
el	-153
▁k	-154
▁so	-155
▁com	-156
▁pl	-157
ood	-158
very	-159
act	-160
▁all	-161
ant	-162
▁ab	-163
art	-164
ies	-165
ak	-166
pp	-167
▁by	-168
us	-169
▁al	-170
ag	-171
▁P	-172
ol	-173
▁v	-174
▁L	-175
▁Th	-176
▁F	-177
est	-178
ous	-179
▁R	-180
op	-181
▁de	-182
th	-183
ist	-184
and	-185
▁ne	-186
▁wor	-187
▁from	-188
▁It	-189
ast	-190
▁they	-191
one	-192
▁J	-193
▁like	-194
▁out	-195
▁G	-196
ven	-197
▁r	-198
▁some	-199
▁int	-200
▁whe	-201
qu	-202
▁her	-203
▁con	-204
▁or	-205
ation	-206
um	-207
fe	-208
ough	-209
red	-210
au	-211
ate	-212
▁N	-213
▁me	-214
▁about	-215
▁has	-216
▁just	-217
res	-218
ich	-219
ind	-220
os	-221
ive	-222
ory	-223
▁O	-224
ard	-225
▁pro	-226
▁E	-227
ack	-228
▁can	-229
▁char	-230
pt	-231
ort	-232
..	-233
▁un	-234
▁tim	-235
ig	-236
ire	-237
ud	-238
ook	-239
ake	-240
▁le	-241
reat	-242
▁This	-243
ight	-244
▁good	-245
▁charact	-246
▁any	-247
▁man	-248
ong	-249
▁wat	-250
▁tr	-251
▁lo	-252
▁up	-253
▁more	-254
▁get	-255
▁go	-256
▁no	-257
ity	-258
▁fe	-259
▁would	-260
▁very	-261
▁see	-262
ound	-263
ther	-264
▁my	-265
▁what	-266
▁there	-267
ite	-268
ge	-269
ame	-270
▁story	-271
▁bec	-272
nt	-273
ide	-274
▁1	-275
able	-276
▁she	-277
▁time	-278
od	-279
▁-	-280
▁when	-281
▁en	-282
ab	-283
hing	-284
▁were	-285
▁had	-286
▁K	-287
ure	-288
▁really	-289
▁only	-290
ore	-291
ell	-292
▁scen	-293
itt	-294
oy	-295
▁their	-296
▁watch	-297
▁if	-298
▁him	-299
▁show	-300
▁even	-301
▁per	-302
▁which	-303
ious	-304
▁other	-305
pl	-306
so	-307
ink	-308
ick	-309
ial	-310
▁cl	-311
man	-312
▁than	-313
ment	-314
te	-315
our	-316
ars	-317
▁them	-318
ond	-319
ine	-320
ap	-321
▁does	-322
▁did	-323
▁kn	-324
og	-325
ays	-326
...	-327
uch	-328
ade	-329
▁end	-330
are	-331
ves	-332
ause	-333
▁pe	-334
ac	-335
ice	-336
▁qu	-337
▁great	-338
▁much	-339
▁bad	-340
▁bet	-341
▁look	-342
▁ar	-343
ue	-344
irect	-345
irst	-346
ople	-347
▁been	-348
▁over	-349
▁could	-350
▁po	-351
▁im	-352
▁will	-353
ple	-354
▁into	-355
▁how	-356
ert	-357
lf	-358
ence	-359
ne	-360
▁well	-361
int	-362
▁pre	-363
▁most	-364
ry	-365
▁people	-366
ose	-367
▁think	-368
▁ro	-369
▁know	-370
▁tw	-371
age	-372
ass	-373
▁because	-374
for	-375
▁ad	-376
other	-377
▁too	-378
▁dis	-379
per	-380
▁us	-381
fter	-382
av	-383
ful	-384
ors	-385
▁ag	-386
ff	-387
▁direct	-388
▁made	-389
▁first	-390
▁real	-391
▁make	-392
ile	-393
▁part	-394
▁every	-395
▁off	-396
▁am	-397
ull	-398
ings	-399
ish	-400
ict	-401
▁way	-402
aw	-403
▁And	-404
ere	-405
▁also	-406
ny	-407
▁Y	-408
).	-409
▁'	-410
▁Wh	-411
oll	-412
ated	-413
▁fun	-414
ost	-415
▁In	-416
ary	-417
▁seem	-418
gin	-419
▁wr	-420
▁thr	-421
ty	-422
▁don	-423
akes	-424
▁its	-425
▁movies	-426
▁But	-427
ical	-428
own	-429
▁character	-430
ans	-431
ress	-432
ep	-433
▁work	-434
iew	-435
▁bl	-436
▁sp	-437
▁Ch	-438
▁characters	-439
ob	-440
ng	-441
ace	-442
ually	-443
▁gu	-444
hed	-445
ance	-446
cc	-447
pect	-448
▁fl	-449
▁films	-450
fect	-451
▁play	-452
▁V	-453
iz	-454
▁te	-455
self	-456
▁plot	-457
▁ye	-458
▁then	-459
ving	-460
▁seen	-461
ces	-462
▁want	-463
omet	-464
▁ser	-465
▁aw	-466
ittle	-467
),	-468
▁your	-469
▁after	-470
▁He	-471
▁two	-472
▁being	-473
▁love	-474
▁say	-475
▁many	-476
▁never	-477
▁acting	-478
ip	-479
urn	-480
get	-481
▁There	-482
nder	-483
▁through	-484
ang	-485
mer	-486
▁back	-487
ark	-488
ens	-489
▁where	-490
▁life	-491
▁ent	-492
ily	-493
▁little	-494
▁St	-495
ian	-496
ved	-497
▁best	-498
▁rem	-499
▁br	-500
ult	-501
▁somet	-502
ild	-503
ather	-504
ber	-505
▁ever	-506
ach	-507
ise	-508
▁des	-509
ci	-510
▁hor	-511
we	-512
▁rec	-513
vel	-514
▁better	-515
ions	-516
wn	-517
▁U	-518
du	-519
ual	-520
▁perfor	-521
rap	-522
▁should	-523
ru	-524
▁find	-525
▁sl	-526
vers	-527
be	-528
▁scene	-529
aking	-530
▁spe	-531
ought	-532
thing	-533
▁2	-534
▁cont	-535
▁feel	-536
▁If	-537
▁i	-538
ase	-539
less	-540
▁att	-541
▁pr	-542
▁again	-543
▁scenes	-544
ertain	-545
ia	-546
▁here	-547
▁still	-548
iend	-549
ath	-550
ents	-551
lie	-552
▁ri	-553
▁Al	-554
▁min	-555
▁gr	-556
▁under	-557
ever	-558
erest	-559
me	-560
augh	-561
▁19	-562
ably	-563
fore	-564
ning	-565
▁kill	-566
▁such	-567
▁interest	-568
igh	-569
▁inc	-570
ree	-571
ren	-572
▁something	-573
▁happ	-574
ting	-575
ason	-576
les	-577
▁old	-578
ense	-579
arly	-580
▁these	-581
▁performan	-582
▁may	-583
▁imp	-584
▁cast	-585
ations	-586
alk	-587
▁fam	-588
▁cr	-589
▁lot	-590
ave	-591
ail	-592
▁point	-593
▁gi	-594
ating	-595
oth	-596
▁hum	-597
reen	-598
▁ap	-599
ater	-600
▁sur	-601
▁doesn	-602
The	-603
iv	-604
▁dec	-605
▁thing	-606
▁wom	-607
ying	-608
joy	-609
▁years	-610
ror	-611
ect	-612
▁those	-613
▁watching	-614
▁actors	-615
up	-616
▁sim	-617
▁gir	-618
▁res	-619
the	-620
▁mus	-621
▁ra	-622
▁didn	-623
▁gen	-624
▁che	-625
▁set	-626
▁enjoy	-627
ock	-628
▁start	-629
▁view	-630
▁cou	-631
▁As	-632
▁fact	-633
▁makes	-634
▁down	-635
ffect	-636
▁funny	-637
old	-638
▁belie	-639
erson	-640
▁guy	-641
▁ob	-642
▁few	-643
ute	-644
▁ev	-645
edy	-646
▁comp	-647
oss	-648
▁Jo	-649
iss	-650
der	-651
▁fin	-652
rigin	-653
az	-654
ale	-655
oc	-656
▁before	-657
▁same	-658
▁actually	-659
▁tra	-660
▁going	-661
ub	-662
li	-663
▁pret	-664
wh	-665
▁got	-666
▁long	-667
▁origin	-668
▁em	-669
▁young	-670
▁supp	-671
▁while	-672
▁though	-673
▁dif	-674
▁why	-675
▁now	-676
ience	-677
ool	-678
ft	-679
▁own	-680
▁produ	-681
▁bit	-682
ript	-683
▁new	-684
▁director	-685
▁ter	-686
▁tri	-687
ible	-688
ction	-689
▁exce	-690
▁turn	-691
hen	-692
▁ke	-693
▁thought	-694
▁nothing	-695
▁sub	-696
▁big	-697
ons	-698
▁girl	-699
ince	-700
aut	-701
ram	-702
▁another	-703
▁rel	-704
iting	-705
▁quite	-706
▁comple	-707
▁sm	-708
cial	-709
rent	-710
▁seems	-711
onder	-712
▁inv	-713
▁around	-714
▁app	-715
hy	-716
ib	-717
ign	-718
▁friend	-719
▁pretty	-720
▁&	-721
▁effect	-722
▁original	-723
▁things	-724
▁need	-725
▁She	-726
ically	-727
▁You	-728
ways	-729
air	-730
▁world	-731
ched	-732
ween	-733
▁right	-734
ris	-735
▁screen	-736
▁enough	-737
▁hard	-738
ew	-739
!!	-740
▁script	-741
▁How	-742
▁Br	-743
ately	-744
most	-745
meric	-746
▁str	-747
ank	-748
ness	-749
▁between	-750
rill	-751
▁appe	-752
app	-753
ster	-754
▁take	-755
▁acc	-756
▁kid	-757
▁ins	-758
ead	-759
▁high	-760
▁far	-761
▁kind	-762
ced	-763
ention	-764
▁person	-765
▁sec	-766
inem	-767
▁laugh	-768
hes	-769
--	-770
▁wonder	-771
▁must	-772
▁give	-773
▁series	-774
▁es	-775
▁gets	-776
ward	-777
▁reason	-778
".	-779
▁role	-780
utes	-781
▁horror	-782
▁mom	-783
▁tell	-784
▁op	-785
▁action	-786
ord	-787
▁times	-788
▁always	-789
vious	-790
",	-791
▁child	-792
▁An	-793
icul	-794
▁isn	-795
aid	-796
ash	-797
▁ep	-798
▁bu	-799
▁hel	-800
▁What	-801
▁least	-802
▁sex	-803
its	-804
▁read	-805
▁So	-806
ouse	-807
▁They	-808
▁put	-809
▁whole	-810
▁interesting	-811
ife	-812
▁saw	-813
▁10	-814
ased	-815
▁beaut	-816
▁Sh	-817
▁come	-818
▁Americ	-819
ody	-820
arr	-821
▁class	-822
here	-823
ully	-824
▁music	-825
▁family	-826
▁main	-827
oot	-828
▁without	-829
▁done	-830
▁expect	-831
arn	-832
▁comedy	-833
ines	-834
▁both	-835
▁cons	-836
▁hand	-837
▁lead	-838
▁rev	-839
▁might	-840
▁almost	-841
▁3	-842
▁ide	-843
▁diffe	-844
▁minutes	-845
▁shot	-846
hn	-847
▁aud	-848
▁cinem	-849
▁performance	-850
▁last	-851
bably	-852
▁expl	-853
▁cam	-854
xt	-855
▁begin	-856
▁anything	-857
gg	-858
▁sound	-859
▁complete	-860
▁book	-861
uring	-862
de	-863
▁inst	-864
▁cour	-865
ime	-866
though	-867
rible	-868
▁help	-869
son	-870
▁care	-871
stand	-872
▁worth	-873
▁Fr	-874
▁co	-875
cially	-876
▁entertain	-877
ane	-878
ism	-879
ograp	-880
▁art	-881
oney	-882
▁cle	-883
▁since	-884
▁el	-885
▁Be	-886
▁woman	-887
▁found	-888
ative	-889
▁That	-890
▁away	-891
▁We	-892
atch	-893
▁sequ	-894
ures	-895
ret	-896
istic	-897
ner	-898
als	-899
isod	-900
▁probably	-901
ition	-902
▁sure	-903
era	-904
▁TV	-905
▁rather	-906
▁All	-907
rist	-908
mend	-909
▁ext	-910
▁vers	-911
ange	-912
▁Not	-913
ialog	-914
▁run	-915
▁call	-916
pecially	-917
ros	-918
▁car	-919
oint	-920
▁episod	-921
ov	-922
▁John	-923
▁Se	-924
osed	-925
ady	-926
apt	-927
▁happen	-928
▁making	-929
led	-930
▁Re	-931
▁abs	-932
▁dialog	-933
umb	-934
▁worst	-935
ten	-936
▁lik	-937
▁course	-938
ling	-939
olly	-940
wood	-941
ither	-942
▁let	-943
▁De	-944
▁bo	-945
ER	-946
▁our	-947
▁comes	-948
ject	-949
ream	-950
▁surp	-951
▁beautif	-952
▁mean	-953
▁Le	-954
co	-955
▁add	-956
▁del	-957
."	-958
▁For	-959
▁different	-960
▁keep	-961
▁poor	-962
▁trying	-963
▁job	-964
▁less	-965
ollow	-966
▁believe	-967
VD	-968
▁rest	-969
ney	-970
aster	-971
▁goes	-972
▁each	-973
▁When	-974
▁day	-975
ments	-976
ont	-977
ates	-978
▁mind	-979
blem	-980
ok	-981
alf	-982
▁sense	-983
▁place	-984
▁My	-985
uck	-986
ah	-987
fin	-988
▁anyone	-989
▁bor	-990
▁looks	-991
▁pol	-992
dd	-993
▁DVD	-994
empt	-995
ph	-996
▁stand	-997
ingly	-998
ics	-999
iter	-1000
▁super	-1001
hip	-1002
▁pres	-1003
▁problem	-1004
**	-1005
lud	-1006
▁yet	-1007
▁played	-1008
ommend	-1009
ortun	-1010
▁money	-1011
▁ending	-1012
▁wasn	-1013
▁ty	-1014
inc	-1015
sc	-1016
ray	-1017
▁inter	-1018
▁shows	-1019
ality	-1020
▁gl	-1021
▁TH	-1022
00	-1023
▁port	-1024
arent	-1025
▁perfect	-1026
ower	-1027
▁actor	-1028
▁ac	-1029
ks	-1030
▁Bl	-1031
iece	-1032
▁boy	-1033
ann	-1034
aps	-1035
ope	-1036
way	-1037
▁watched	-1038
ember	-1039
▁plays	-1040
▁dram	-1041
▁cre	-1042
▁fav	-1043
▁One	-1044
▁conf	-1045
▁short	-1046
▁follow	-1047
▁recommend	-1048
▁Un	-1049
▁said	-1050
▁war	-1051
▁having	-1052
▁audience	-1053
ilar	-1054
▁fan	-1055
▁creat	-1056
gether	-1057
▁together	-1058
llent	-1059
▁half	-1060
▁takes	-1061
atter	-1062
▁looking	-1063
▁head	-1064
omb	-1065
▁himself	-1066
▁nice	-1067
▁second	-1068
▁effects	-1069
ident	-1070
▁version	-1071
▁someone	-1072
▁miss	-1073
ature	-1074
▁else	-1075
▁sit	-1076
▁true	-1077
ames	-1078
land	-1079
▁review	-1080
ollywood	-1081
▁certain	-1082
▁dep	-1083
▁talk	-1084
ied	-1085
▁Sc	-1086
▁understand	-1087
▁vis	-1088
ues	-1089
▁fall	-1090
▁poss	-1091
▁imag	-1092
sp	-1093
not	-1094
atic	-1095
▁At	-1096
cept	-1097
▁ed	-1098
▁left	-1099
▁Sp	-1100
▁wife	-1101
▁especially	-1102
▁special	-1103
▁father	-1104
ited	-1105
ex	-1106
ix	-1107
▁anim	-1108
▁night	-1109
ply	-1110
▁beautiful	-1111
day	-1112
ists	-1113
▁entire	-1114
▁came	-1115
▁exc	-1116
▁rele	-1117
▁three	-1118
ier	-1119
▁obvious	-1120
ared	-1121
▁idea	-1122
▁sing	-1123
ional	-1124
▁hour	-1125
▁ph	-1126
▁ele	-1127
▁dist	-1128
▁Cl	-1129
▁use	-1130
10	-1131
▁comm	-1132
sy	-1133
▁Ste	-1134
▁year	-1135
ird	-1136
ired	-1137
anc	-1138
▁American	-1139
▁4	-1140
▁det	-1141
▁mur	-1142
▁seeing	-1143
▁friends	-1144
▁Christ	-1145
▁excellent	-1146
▁mar	-1147
▁invol	-1148
▁Z	-1149
ides	-1150
like	-1151
fully	-1152
0'	-1153
▁ey	-1154
▁home	-1155
att	-1156
udget	-1157
▁However	-1158
upid	-1159
▁later	-1160
▁everything	-1161
▁mon	-1162
io	-1163
uff	-1164
appoint	-1165
▁sk	-1166
ract	-1167
▁during	-1168
▁attempt	-1169
ted	-1170
▁men	-1171
ross	-1172
▁low	-1173
▁fight	-1174
▁exp	-1175
orn	-1176
▁Well	-1177
▁--	-1178
▁once	-1179
ork	-1180
▁lack	-1181
▁everyone	-1182
▁disappoint	-1183
▁sch	-1184
▁simply	-1185
▁hist	-1186
▁Ar	-1187
▁Rob	-1188
ains	-1189
ount	-1190
▁Mar	-1191
▁tal	-1192
▁unt	-1193
▁mem	-1194
▁beh	-1195
▁rep	-1196
▁sty	-1197
▁tot	-1198
olute	-1199
▁completely	-1200
my	-1201
▁death	-1202
ets	-1203
▁used	-1204
▁exper	-1205
▁stupid	-1206
ery	-1207
iol	-1208
▁No	-1209
▁On	-1210
▁top	-1211
▁Hollywood	-1212
but	-1213
▁song	-1214
▁human	-1215
▁heart	-1216
▁supposed	-1217
▁mess	-1218
▁includ	-1219
▁pict	-1220
▁defin	-1221
▁dra	-1222
▁wrong	-1223
ien	-1224
▁performances	-1225
▁8	-1226
itten	-1227
▁tit	-1228
▁ass	-1229
▁serious	-1230
▁eas	-1231
aring	-1232
▁fail	-1233
ott	-1234
▁open	-1235
▁house	-1236
ography	-1237
uth	-1238
gr	-1239
elt	-1240
▁try	-1241
▁stud	-1242
▁either	-1243
▁ret	-1244
▁gener	-1245
▁sy	-1246
orm	-1247
ins	-1248
amp	-1249
ideo	-1250
fic	-1251
▁word	-1252
▁given	-1253
uly	-1254
▁loc	-1255
▁conv	-1256
▁black	-1257
idd	-1258
▁emot	-1259
▁exam	-1260
/10	-1261
▁kids	-1262
....	-1263
▁cra	-1264
▁becom	-1265
▁absolute	-1266
oice	-1267
▁conc	-1268
▁7	-1269
▁small	-1270
▁camera	-1271
▁line	-1272
▁bas	-1273
▁boring	-1274
▁classic	-1275
ider	-1276
▁5	-1277
▁ind	-1278
velop	-1279
haps	-1280
▁count	-1281
▁women	-1282
▁Don	-1283
▁particul	-1284
▁surpris	-1285
▁rom	-1286
▁gra	-1287
play	-1288
ove	-1289
ize	-1290
▁pain	-1291
▁light	-1292
▁production	-1293
ities	-1294
ric	-1295
▁star	-1296
▁cop	-1297
▁until	-1298
itely	-1299
▁along	-1300
▁couple	-1301
▁sad	-1302
▁won	-1303
▁favor	-1304
oon	-1305
fortun	-1306
▁sort	-1307
▁portray	-1308
▁truly	-1309
iness	-1310
▁hope	-1311
ike	-1312
▁moments	-1313
vis	-1314
▁wa	-1315
▁pass	-1316
▁cred	-1317
▁viol	-1318
ug	-1319
ote	-1320
iant	-1321
▁ple	-1322
ories	-1323
sel	-1324
reak	-1325
med	-1326
▁Even	-1327
▁amaz	-1328
▁instead	-1329
▁flick	-1330
que	-1331
▁Man	-1332
▁remember	-1333
aj	-1334
com	-1335
▁hero	-1336
▁full	-1337
▁To	-1338
▁awful	-1339
▁episode	-1340
ming	-1341
▁Some	-1342
ility	-1343
▁school	-1344
▁After	-1345
▁humor	-1346
▁except	-1347
ented	-1348
▁name	-1349
▁gives	-1350
IN	-1351
▁Will	-1352
▁doing	-1353
▁getting	-1354
▁9	-1355
▁budget	-1356
ows	-1357
▁itself	-1358
▁playing	-1359
▁z	-1360
ently	-1361
▁become	-1362
▁wonderful	-1363
▁THE	-1364
ony	-1365
▁develop	-1366
▁Mr	-1367
▁form	-1368
imes	-1369
ler	-1370
▁dri	-1371
▁often	-1372
▁terrible	-1373
,"	-1374
olog	-1375
right	-1376
▁.	-1377
▁lines	-1378
▁face	-1379
▁next	-1380
ax	-1381
ton	-1382
▁others	-1383
▁stars	-1384
ized	-1385
▁however	-1386
ister	-1387
▁dialogue	-1388
▁Car	-1389
▁felt	-1390
▁reg	-1391
▁slow	-1392
▁ann	-1393
und	-1394
▁guess	-1395
▁liked	-1396
▁impress	-1397
▁video	-1398
▁piece	-1399
▁close	-1400
aughter	-1401
▁coll	-1402
▁quest	-1403
ael	-1404
▁cor	-1405
reme	-1406
▁live	-1407
ibly	-1408
▁adv	-1409
▁Jack	-1410
▁early	-1411
▁dead	-1412
▁couldn	-1413
▁fant	-1414
▁brill	-1415
ger	-1416
ps	-1417
▁actress	-1418
▁case	-1419
▁mother	-1420
▁Dav	-1421
ument	-1422
line	-1423
▁power	-1424
▁went	-1425
illy	-1426
tern	-1427
▁mention	-1428
▁cut	-1429
▁strong	-1430
▁against	-1431
▁waste	-1432
ley	-1433
used	-1434
▁children	-1435
▁ref	-1436
▁His	-1437
ccess	-1438
▁style	-1439
ured	-1440
▁New	-1441
▁relations	-1442
▁entertaining	-1443
ined	-1444
▁dark	-1445
▁maybe	-1446
ular	-1447
▁mis	-1448
▁past	-1449
▁title	-1450
lish	-1451
▁trans	-1452
▁With	-1453
ready	-1454
▁While	-1455
oid	-1456
▁rid	-1457
pite	-1458
▁absolutely	-1459
ific	-1460
sh	-1461
▁worse	-1462
yn	-1463
ichael	-1464
unch	-1465
▁definitely	-1466
body	-1467
cess	-1468
▁written	-1469
atur	-1470
▁side	-1471
oub	-1472
▁beginning	-1473
▁becomes	-1474
▁support	-1475
iam	-1476
itch	-1477
▁Then	-1478
rew	-1479
selves	-1480
by	-1481
riend	-1482
fortunately	-1483
▁thrill	-1484
▁seemed	-1485
▁sw	-1486
▁Mc	-1487
▁	-1488
ts	-1489
▁already	-1490
▁brother	-1491
▁picture	-1492
▁example	-1493
▁success	-1494
▁Har	-1495
▁lives	-1496
▁rent	-1497
▁certainly	-1498
▁cinema	-1499
▁pred	-1500
▁extreme	-1501
▁Eng	-1502
▁pop	-1503
▁adm	-1504
pped	-1505
▁Also	-1506
▁brilliant	-1507
▁sever	-1508
▁wanted	-1509
▁fans	-1510
enn	-1511
▁fine	-1512
▁relationship	-1513
▁several	-1514
▁matter	-1515
▁tou	-1516
osp	-1517
▁loved	-1518
▁although	-1519
▁direction	-1520
ison	-1521
het	-1522
vable	-1523
▁blood	-1524
▁self	-1525
ried	-1526
▁drama	-1527
aken	-1528
▁cent	-1529
▁Is	-1530
ief	-1531
▁walk	-1532
aul	-1533
▁wants	-1534
chn	-1535
▁pur	-1536
cy	-1537
▁master	-1538
aving	-1539
▁lost	-1540
▁et	-1541
▁tries	-1542
uss	-1543
▁mag	-1544
ches	-1545
▁dem	-1546
▁works	-1547
▁town	-1548
▁annoy	-1549
ided	-1550
sych	-1551
ages	-1552
orge	-1553
ape	-1554
▁Of	-1555
▁mor	-1556
▁writing	-1557
what	-1558
▁Char	-1559
▁vill	-1560
▁viewer	-1561
▁av	-1562
▁totally	-1563
▁guys	-1564
▁list	-1565
amed	-1566
▁occ	-1567
unk	-1568
▁son	-1569
▁throughout	-1570
▁Dan	-1571
▁sat	-1572
▁Michael	-1573
▁num	-1574
▁able	-1575
▁prov	-1576
▁quality	-1577
oil	-1578
oke	-1579
▁par	-1580
▁deser	-1581
gu	-1582
▁doc	-1583
▁Now	-1584
▁called	-1585
▁enjoyed	-1586
▁capt	-1587
▁daughter	-1588
▁novel	-1589
▁history	-1590
▁dr	-1591
▁eff	-1592
ung	-1593
▁based	-1594
ination	-1595
▁comment	-1596
▁med	-1597
where	-1598
OT	-1599
▁col	-1600
▁stuff	-1601
▁Just	-1602
ms	-1603
▁turns	-1604
use	-1605
▁killer	-1606
▁amazing	-1607
▁fem	-1608
▁val	-1609
▁gave	-1610
▁starts	-1611
ern	-1612
▁fair	-1613
▁game	-1614
▁finally	-1615
off	-1616
ude	-1617
▁appear	-1618
▁Why	-1619
▁bra	-1620
▁genre	-1621
itive	-1622
using	-1623
▁behind	-1624
▁favorite	-1625
▁deal	-1626
rib	-1627
▁myster	-1628
▁learn	-1629
▁fig	-1630
▁hon	-1631
▁inf	-1632
rop	-1633
▁moment	-1634
▁themselves	-1635
ished	-1636
▁cult	-1637
▁evil	-1638
▁contin	-1639
▁situ	-1640
ese	-1641
▁final	-1642
▁today	-1643
to	-1644
▁late	-1645
▁import	-1646
arth	-1647
19	-1648
▁parts	-1649
rodu	-1650
na	-1651
ik	-1652
oup	-1653
ajor	-1654
ards	-1655
▁Gr	-1656
▁etc	-1657
▁prom	-1658
ox	-1659
▁stra	-1660
▁shoot	-1661
▁crit	-1662
▁days	-1663
▁opp	-1664
▁May	-1665
▁exact	-1666
▁level	-1667
ump	-1668
▁typ	-1669
ene	-1670
▁feat	-1671
astic	-1672
iet	-1673
akers	-1674
▁ask	-1675
▁Every	-1676
▁intell	-1677
band	-1678
▁thinking	-1679
▁consider	-1680
▁ir	-1681
▁Brit	-1682
▁foot	-1683
▁stories	-1684
.)	-1685
▁Ge	-1686
▁myself	-1687
▁Her	-1688
▁susp	-1689
iculous	-1690
▁cost	-1691
▁deli	-1692
▁psych	-1693
▁feeling	-1694
▁pat	-1695
▁voice	-1696
arb	-1697
▁bus	-1698
▁musical	-1699
▁decent	-1700
▁pick	-1701
▁incred	-1702
▁soon	-1703
▁effort	-1704
dy	-1705
▁dream	-1706
▁roles	-1707
▁sn	-1708
▁const	-1709
urt	-1710
▁Me	-1711
usband	-1712
▁horrible	-1713
▁says	-1714
▁stop	-1715
▁girls	-1716
ior	-1717
▁eyes	-1718
▁heard	-1719
▁Any	-1720
▁mot	-1721
ient	-1722
AN	-1723
▁took	-1724
▁murder	-1725
▁document	-1726
▁Ke	-1727
okes	-1728
▁cinemat	-1729
▁God	-1730
▁win	-1731
▁killed	-1732
▁perhaps	-1733
▁,	-1734
▁stru	-1735
ives	-1736
antly	-1737
▁white	-1738
▁Pe	-1739
▁cannot	-1740
yp	-1741
cut	-1742
▁Robert	-1743
antic	-1744
▁Or	-1745
els	-1746
▁major	-1747
uc	-1748
▁happens	-1749
▁fore	-1750
ances	-1751
▁weak	-1752
gan	-1753
gs	-1754
ma	-1755
tra	-1756
uge	-1757
▁involved	-1758
▁ridiculous	-1759
owing	-1760
▁predict	-1761
ek	-1762
▁hilar	-1763
▁directed	-1764
▁hit	-1765
eth	-1766
▁husband	-1767
ering	-1768
▁room	-1769
LL	-1770
ats	-1771
urb	-1772
aves	-1773
ences	-1774
▁techn	-1775
▁type	-1776
▁sle	-1777
▁opin	-1778
▁Rich	-1779
▁non	-1780
AT	-1781
▁6	-1782
▁happened	-1783
▁experience	-1784
▁Ed	-1785
▁result	-1786
▁group	-1787
▁prof	-1788
br	-1789
▁sol	-1790
▁bring	-1791
▁hold	-1792
▁chang	-1793
ters	-1794
▁break	-1795
mp	-1796
ys	-1797
▁Paul	-1798
▁event	-1799
▁violence	-1800
▁ago	-1801
▁told	-1802
▁Q	-1803
▁teen	-1804
side	-1805
▁tele	-1806
how	-1807
▁extremely	-1808
▁Ger	-1809
apan	-1810
▁leave	-1811
▁fut	-1812
▁chance	-1813
▁Pl	-1814
▁Per	-1815
▁ste	-1816
▁crap	-1817
▁move	-1818
!!!	-1819
▁wouldn	-1820
zy	-1821
ique	-1822
▁James	-1823
▁age	-1824
▁esc	-1825
▁200	-1826
▁swe	-1827
▁Ind	-1828
▁Pet	-1829
▁cheap	-1830
▁Ne	-1831
iddle	-1832
▁quick	-1833
▁First	-1834
ots	-1835
▁hilarious	-1836
ST	-1837
▁pos	-1838
▁looked	-1839
▁stre	-1840
▁stay	-1841
▁career	-1842
ement	-1843
▁score	-1844
ON	-1845
▁shown	-1846
rest	-1847
ational	-1848
▁foc	-1849
▁shock	-1850
aced	-1851
mb	-1852
ential	-1853
▁polit	-1854
wards	-1855
▁desc	-1856
▁coming	-1857
▁highly	-1858
▁phot	-1859
▁disco	-1860
▁obviously	-1861
vision	-1862
▁apparent	-1863
▁Do	-1864
▁sometimes	-1865
▁(19	-1866
▁Japan	-1867
▁similar	-1868
▁number	-1869
▁simple	-1870
ered	-1871
▁body	-1872
▁inde	-1873
▁comed	-1874
▁annoying	-1875
aged	-1876
▁ant	-1877
▁English	-1878
▁taken	-1879
AR	-1880
nds	-1881
enty	-1882
OR	-1883
▁Osc	-1884
ground	-1885
▁ang	-1886
itting	-1887
aim	-1888
▁yourself	-1889
▁opinion	-1890
nded	-1891
▁var	-1892
▁David	-1893
▁particularly	-1894
▁hours	-1895
▁exactly	-1896
iety	-1897
▁strange	-1898
ury	-1899
rence	-1900
ians	-1901
▁gun	-1902
▁country	-1903
▁Although	-1904
▁ones	-1905
▁treat	-1906
▁deep	-1907
▁four	-1908
▁alone	-1909
ino	-1910
ovie	-1911
▁return	-1912
▁started	-1913
▁huge	-1914
▁writer	-1915
ones	-1916
▁ill	-1917
pping	-1918
▁lar	-1919
▁known	-1920
▁dev	-1921
▁ends	-1922
rit	-1923
▁finds	-1924
ky	-1925
▁pay	-1926
rench	-1927
▁possible	-1928
▁somewhat	-1929
ina	-1930
▁gore	-1931
▁cool	-1932
bel	-1933
▁War	-1934
▁moder	-1935
▁change	-1936
▁released	-1937
read	-1938
▁doub	-1939
▁whose	-1940
▁across	-1941
▁usual	-1942
▁cinematography	-1943
▁season	-1944
▁Ad	-1945
ator	-1946
▁Tom	-1947
▁disc	-1948
▁prem	-1949
▁filmm	-1950
ubl	-1951
cks	-1952
outh	-1953
▁shots	-1954
▁opening	-1955
▁hot	-1956
▁talent	-1957
▁*	-1958
▁subject	-1959
▁Je	-1960
unt	-1961
▁pot	-1962
▁zomb	-1963
lt	-1964
aces	-1965
ield	-1966
▁narr	-1967
▁jokes	-1968
▁forget	-1969
lo	-1970
▁saying	-1971
▁episodes	-1972
rise	-1973
ball	-1974
▁reality	-1975
ouble	-1976
▁dest	-1977
▁pull	-1978
ili	-1979
▁police	-1980
▁**	-1981
ised	-1982
▁sent	-1983
ron	-1984
▁disappointed	-1985
wise	-1986
anger	-1987
▁order	-1988
▁single	-1989
▁fill	-1990
omp	-1991
▁build	-1992
▁female	-1993
▁El	-1994
▁produc	-1995
▁William	-1996
mosp	-1997
▁wish	-1998
▁local	-1999
▁living	-2000
▁vict	-2001
ral	-2002
▁sister	-2003
aker	-2004
▁honest	-2005
▁mist	-2006
▁events	-2007
▁talking	-2008
▁Dis	-2009
▁near	-2010
▁prot	-2011
▁running	-2012
ush	-2013
▁Over	-2014
▁sign	-2015
▁attention	-2016
▁emb	-2017
hetic	-2018
▁unc	-2019
▁touch	-2020
▁remind	-2021
▁save	-2022
▁atmosp	-2023
▁important	-2024
real	-2025
light	-2026
▁turned	-2027
▁knew	-2028
▁plan	-2029
▁documentary	-2030
ald	-2031
▁middle	-2032
reci	-2033
lling	-2034
▁British	-2035
▁songs	-2036
asy	-2037
▁ut	-2038
orth	-2039
iction	-2040
▁suspense	-2041
iel	-2042
oud	-2043
head	-2044
▁tells	-2045
▁despite	-2046
▁problems	-2047
▁!	-2048
▁Oh	-2049
▁Tr	-2050
▁meet	-2051
▁parent	-2052
ING	-2053
ctor	-2054
▁sequence	-2055
any	-2056
▁modern	-2057
rely	-2058
ants	-2059
▁air	-2060
▁compl	-2061
▁detail	-2062
▁taking	-2063
ital	-2064
▁inn	-2065
▁knows	-2066
eng	-2067
which	-2068
▁subt	-2069
▁apart	-2070
▁straight	-2071
▁OK	-2072
▁intellig	-2073
uri	-2074
ires	-2075
otic	-2076
▁Richard	-2077
!"	-2078
yond	-2079
iod	-2080
▁team	-2081
▁respect	-2082
▁pri	-2083
▁aren	-2084
ole	-2085
▁20	-2086
▁equ	-2087
▁unf	-2088
▁hell	-2089
▁usually	-2090
▁Am	-2091
▁scary	-2092
▁ten	-2093
usion	-2094
▁hop	-2095
▁future	-2096
oe	-2097
▁comic	-2098
arch	-2099
▁contro	-2100
▁silly	-2101
▁fa	-2102
▁due	-2103
aterial	-2104
▁romantic	-2105
orable	-2106
▁easily	-2107
▁including	-2108
▁ve	-2109
▁question	-2110
▁among	-2111
che	-2112
▁mark	-2113
▁ca	-2114
▁television	-2115
EN	-2116
ubb	-2117
oul	-2118
iché	-2119
ained	-2120
▁present	-2121
▁adult	-2122
▁aspect	-2123
▁sets	-2124
▁supporting	-2125
▁words	-2126
▁land	-2127
▁appears	-2128
▁York	-2129
▁cart	-2130
▁forg	-2131
▁happy	-2132
▁fast	-2133
▁predictable	-2134
▁dull	-2135
▁sexual	-2136
▁appreci	-2137
▁material	-2138
▁enjoyable	-2139
ltim	-2140
▁hands	-2141
▁clearly	-2142
▁ear	-2143
▁needs	-2144
go	-2145
▁eng	-2146
▁prog	-2147
▁Con	-2148
▁falls	-2149
▁mostly	-2150
rated	-2151
▁Oscar	-2152
gy	-2153
form	-2154
irector	-2155
asc	-2156
oof	-2157
nding	-2158
▁actual	-2159
▁creep	-2160
▁previous	-2161
▁box	-2162
▁pleas	-2163
who	-2164
back	-2165
▁Unfortunately	-2166
▁Mor	-2167
▁odd	-2168
▁entertainment	-2169
'.	-2170
ara	-2171
▁sold	-2172
??	-2173
▁Su	-2174
▁Ben	-2175
▁sum	-2176
▁Pr	-2177
iest	-2178
▁eye	-2179
▁seriously	-2180
▁ways	-2181
▁check	-2182
▁giving	-2183
attle	-2184
aught	-2185
▁none	-2186
estern	-2187
ressed	-2188
▁points	-2189
▁sequel	-2190
▁German	-2191
▁herself	-2192
▁Ph	-2193
inal	-2194
▁cliché	-2195
▁spir	-2196
▁reve	-2197
▁197	-2198
▁feels	-2199
ublic	-2200
▁King	-2201
ension	-2202
ey	-2203
ution	-2204
▁feature	-2205
▁surprised	-2206
▁George	-2207
▁victim	-2208
▁Yes	-2209
▁Most	-2210
▁flaw	-2211
▁Sim	-2212
▁message	-2213
amb	-2214
▁Maybe	-2215
▁period	-2216
▁198	-2217
▁adapt	-2218
▁secret	-2219
▁above	-2220
▁animation	-2221
▁Lee	-2222
▁met	-2223
▁gang	-2224
ining	-2225
▁doubt	-2226
▁exist	-2227
▁haven	-2228
▁theme	-2229
▁camp	-2230
▁storyline	-2231
▁clear	-2232
▁attack	-2233
▁Sam	-2234
orry	-2235
work	-2236
track	-2237
▁slight	-2238
▁visual	-2239
▁IM	-2240
▁NOT	-2241
cl	-2242
▁ru	-2243
▁bunch	-2244
▁moving	-2245
ficult	-2246
▁elements	-2247
irt	-2248
uses	-2249
▁hate	-2250
',	-2251
ggest	-2252
iment	-2253
▁thriller	-2254
aby	-2255
▁From	-2256
▁begins	-2257
▁theat	-2258
▁superb	-2259
▁viewers	-2260
wr	-2261
arre	-2262
▁comb	-2263
▁fell	-2264
verage	-2265
▁nearly	-2266
atural	-2267
▁accept	-2268
▁spoil	-2269
▁upon	-2270
▁beyond	-2271
▁within	-2272
▁difficult	-2273
▁By	-2274
ously	-2275
▁tried	-2276
▁decided	-2277
▁mil	-2278
▁easy	-2279
▁personal	-2280
row	-2281
▁means	-2282
▁release	-2283
▁suggest	-2284
ening	-2285
▁suff	-2286
▁overall	-2287
OU	-2288
▁Ab	-2289
▁named	-2290
oun	-2291
▁showing	-2292
ices	-2293
▁bro	-2294
▁tre	-2295
▁comments	-2296
view	-2297
▁large	-2298
▁twist	-2299
▁insp	-2300
▁Disney	-2301
▁rating	-2302
▁soundtrack	-2303
aur	-2304
▁five	-2305
ett	-2306
▁Che	-2307
▁clim	-2308
▁hear	-2309
▁trag	-2310
▁working	-2311
▁Like	-2312
▁figure	-2313
▁...	-2314
▁wit	-2315
sw	-2316
▁dru	-2317
▁writ	-2318
▁Who	-2319
omin	-2320
▁typical	-2321
▁fantastic	-2322
▁Wor	-2323
ival	-2324
▁kept	-2325
▁leads	-2326
▁tale	-2327
▁theater	-2328
RE	-2329
▁US	-2330
ceed	-2331
▁Jim	-2332
incing	-2333
▁using	-2334
▁free	-2335
▁truth	-2336
ially	-2337
▁famous	-2338
▁editing	-2339
ising	-2340
▁stri	-2341
!)	-2342
▁viewing	-2343
IL	-2344
atever	-2345
▁brought	-2346
▁particular	-2347
▁mix	-2348
▁weird	-2349
af	-2350
▁atmosphere	-2351
▁danc	-2352
mas	-2353
oor	-2354
lier	-2355
▁Lu	-2356
▁surv	-2357
▁sequences	-2358
vent	-2359
▁realistic	-2360
hic	-2361
▁introdu	-2362
▁parents	-2363
ai	-2364
▁Col	-2365
ively	-2366
▁post	-2367
▁stage	-2368
▁whether	-2369
▁business	-2370
▁wood	-2371
let	-2372
▁French	-2373
▁America	-2374
rific	-2375
▁wait	-2376
▁Frank	-2377
▁background	-2378
lin	-2379
▁Tw	-2380
dden	-2381
▁norm	-2382
▁Peter	-2383
▁reviews	-2384
▁Sm	-2385
▁buy	-2386
▁obs	-2387
▁red	-2388
▁premise	-2389
Th	-2390
rey	-2391
▁und	-2392
▁iss	-2393
▁lame	-2394
▁rese	-2395
▁speak	-2396
oose	-2397
▁greatest	-2398
▁Dr	-2399
▁city	-2400
▁expected	-2401
▁199	-2402
▁Des	-2403
▁Its	-2404
▁sil	-2405
▁filmed	-2406
host	-2407
aling	-2408
▁believable	-2409
of	-2410
▁cat	-2411
▁crime	-2412
▁soc	-2413
▁basically	-2414
kay	-2415
esome	-2416
▁design	-2417
▁strugg	-2418
bers	-2419
▁stun	-2420
▁became	-2421
▁Good	-2422
urther	-2423
▁Japanese	-2424
▁front	-2425
avy	-2426
▁Can	-2427
▁exe	-2428
ged	-2429
▁Ex	-2430
▁avoid	-2431
▁utter	-2432
?"	-2433
▁Gu	-2434
▁Ital	-2435
▁pure	-2436
lfriend	-2437
ES	-2438
▁nature	-2439
iences	-2440
▁These	-2441
ges	-2442
▁law	-2443
▁poorly	-2444
▁sudden	-2445
▁appro	-2446
esy	-2447
▁Watch	-2448
ana	-2449
▁rock	-2450
▁meaning	-2451
▁bar	-2452
lor	-2453
▁cur	-2454
spect	-2455
▁leaves	-2456
▁dumb	-2457
▁ultim	-2458
ogn	-2459
▁los	-2460
▁apparently	-2461
hood	-2462
▁needed	-2463
▁average	-2464
▁lim	-2465
▁tast	-2466
▁surprise	-2467
ills	-2468
cted	-2469
▁mystery	-2470
icks	-2471
hys	-2472
▁die	-2473
▁ment	-2474
more	-2475
piece	-2476
▁Scott	-2477
▁villain	-2478
▁situation	-2479
▁Tim	-2480
▁sens	-2481
▁fire	-2482
▁lots	-2483
▁prop	-2484
▁third	-2485
pend	-2486
▁Here	-2487
▁male	-2488
▁Mart	-2489
▁credits	-2490
set	-2491
uro	-2492
▁bored	-2493
▁killing	-2494
▁project	-2495
EA	-2496
ear	-2497
▁er	-2498
▁gone	-2499
▁Night	-2500
▁costum	-2501
▁forced	-2502
▁public	-2503
▁realize	-2504
bor	-2505
anks	-2506
▁cap	-2507
▁liter	-2508
▁meant	-2509
▁earlier	-2510
▁IMD	-2511
▁advent	-2512
udd	-2513
ager	-2514
▁wind	-2515
▁emotional	-2516
▁memorable	-2517
▁Gra	-2518
isf	-2519
▁id	-2520
ored	-2521
▁inte	-2522
▁meets	-2523
▁write	-2524
time	-2525
▁Par	-2526
▁somehow	-2527
bert	-2528
chie	-2529
▁trad	-2530
▁unique	-2531
▁emotion	-2532
ppy	-2533
urd	-2534
erry	-2535
▁minute	-2536
▁Overall	-2537
▁interested	-2538
inger	-2539
▁footage	-2540
key	-2541
▁AN	-2542
▁older	-2543
▁Ser	-2544
▁resp	-2545
rif	-2546
▁keeps	-2547
▁screenplay	-2548
▁Sch	-2549
▁rob	-2550
▁shame	-2551
▁laughs	-2552
▁Joe	-2553
▁reading	-2554
▁Ang	-2555
▁disturb	-2556
▁oper	-2557
▁concept	-2558
▁bel	-2559
▁Wood	-2560
▁possibly	-2561
▁Com	-2562
cessary	-2563
▁unlike	-2564
▁express	-2565
▁society	-2566
▁directors	-2567
fer	-2568
por	-2569
▁dance	-2570
▁Film	-2571
▁fasc	-2572
▁allow	-2573
▁Inst	-2574
▁badly	-2575
▁conne	-2576
▁features	-2577
▁`	-2578
cious	-2579
friend	-2580
▁quickly	-2581
▁dam	-2582
▁yes	-2583
▁mill	-2584
▁anyway	-2585
▁forward	-2586
irc	-2587
look	-2588
▁grand	-2589
▁worked	-2590
▁popular	-2591
▁profess	-2592
▁sick	-2593
▁brings	-2594
angu	-2595
▁Mac	-2596
▁Mat	-2597
▁dramatic	-2598
▁nor	-2599
iliar	-2600
▁imagine	-2601
▁perfectly	-2602
over	-2603
▁girlfriend	-2604
▁development	-2605
▁$	-2606
cause	-2607
▁Other	-2608
▁admit	-2609
?)	-2610
ula	-2611
▁Qu	-2612
▁stere	-2613
▁romance	-2614
ived	-2615
▁Jul	-2616
▁writers	-2617
well	-2618
▁creepy	-2619
▁general	-2620
onic	-2621
reed	-2622
allow	-2623
acing	-2624
belie	-2625
▁setting	-2626
ises	-2627
▁directing	-2628
ries	-2629
▁Jane	-2630
ele	-2631
ius	-2632
▁195	-2633
hel	-2634
king	-2635
▁band	-2636
▁catch	-2637
iny	-2638
▁flat	-2639
arring	-2640
▁fails	-2641
▁copy	-2642
▁clever	-2643
▁potential	-2644
ashing	-2645
▁mad	-2646
▁nud	-2647
▁agree	-2648
▁sleep	-2649
▁Another	-2650
▁eventually	-2651
▁towards	-2652
erm	-2653
ague	-2654
▁imm	-2655
▁battle	-2656
▁create	-2657
▁joke	-2658
▁cheesy	-2659
▁Fred	-2660
▁execut	-2661
▁enc	-2662
▁whom	-2663
▁cartoon	-2664
▁powerful	-2665
oman	-2666
▁occas	-2667
▁histor	-2668
▁Em	-2669
▁purp	-2670
▁please	-2671
▁various	-2672
▁cry	-2673
▁repe	-2674
▁prison	-2675
▁recogn	-2676
▁attract	-2677
ases	-2678
rupt	-2679
▁amount	-2680
▁Christmas	-2681
ero	-2682
ivid	-2683
venge	-2684
vered	-2685
IS	-2686
eless	-2687
▁reasons	-2688
▁incredibly	-2689
ee	-2690
▁193	-2691
▁ideas	-2692
▁social	-2693
▁stereot	-2694
▁innoc	-2695
kn	-2696
aked	-2697
iver	-2698
▁bare	-2699
ivers	-2700
▁plain	-2701
▁leading	-2702
▁Still	-2703
▁Act	-2704
▁Ale	-2705
▁aut	-2706
▁IMDb	-2707
action	-2708
▁invest	-2709
▁deserves	-2710
▁portrayed	-2711
▁claim	-2712
▁space	-2713
▁:	-2714
▁total	-2715
▁ign	-2716
arrass	-2717
bs	-2718
een	-2719
▁commun	-2720
▁manages	-2721
▁sweet	-2722
▁expecting	-2723
with	-2724
▁Bra	-2725
▁spirit	-2726
▁casting	-2727
▁collect	-2728
▁positive	-2729
▁masterpiece	-2730
mist	-2731
▁attempts	-2732
itty	-2733
▁est	-2734
▁neg	-2735
▁step	-2736
▁match	-2737
vin	-2738
▁fantasy	-2739
▁Euro	-2740
▁cover	-2741
berg	-2742
▁revol	-2743
▁indeed	-2744
▁Af	-2745
wart	-2746
▁cond	-2747
▁jour	-2748
▁rich	-2749
▁hair	-2750
▁colle	-2751
▁sounds	-2752
ology	-2753
▁phys	-2754
▁acted	-2755
▁desper	-2756
▁plenty	-2757
▁embarrass	-2758
su	-2759
ips	-2760
▁political	-2761
")	-2762
▁ess	-2763
▁circ	-2764
▁fairly	-2765
▁30	-2766
▁missing	-2767
oles	-2768
▁Stre	-2769
▁Great	-2770
▁achie	-2771
▁extra	-2772
▁remake	-2773
elly	-2774
pper	-2775
asher	-2776
▁beauty	-2777
ask	-2778
itted	-2779
▁fighting	-2780
ford	-2781
▁Aust	-2782
▁nudity	-2783
▁outside	-2784
cent	-2785
medi	-2786
▁murd	-2787
arl	-2788
▁symp	-2789
▁langu	-2790
▁further	-2791
val	-2792
gest	-2793
▁Bill	-2794
▁inside	-2795
▁talented	-2796
▁af	-2797
▁hom	-2798
▁explain	-2799
ze	-2800
unny	-2801
▁crew	-2802
▁note	-2803
▁hardly	-2804
andy	-2805
▁married	-2806
▁telling	-2807
▁familiar	-2808
▁recently	-2809
iff	-2810
mon	-2811
▁gay	-2812
▁remark	-2813
▁crazy	-2814
▁wasted	-2815
idden	-2816
▁Mary	-2817
▁relig	-2818
▁filmmakers	-2819
zz	-2820
▁dog	-2821
▁ident	-2822
▁mentioned	-2823
cked	-2824
irl	-2825
agon	-2826
▁Gold	-2827
▁lady	-2828
▁Black	-2829
▁Pat	-2830
▁aff	-2831
▁era	-2832
resh	-2833
▁decides	-2834
ades	-2835
▁answ	-2836
▁destro	-2837
▁scient	-2838
alth	-2839
▁bed	-2840
▁trail	-2841
▁Instead	-2842
bo	-2843
▁En	-2844
izing	-2845
▁caught	-2846
▁delight	-2847
▁clos	-2848
▁requ	-2849
▁missed	-2850
▁members	-2851
ring	-2852
▁depth	-2853
▁common	-2854
olf	-2855
▁mid	-2856
▁accident	-2857
erv	-2858
ding	-2859
ened	-2860
ites	-2861
▁pace	-2862
▁stat	-2863
iously	-2864
▁ended	-2865
▁scream	-2866
lying	-2867
▁Star	-2868
▁vamp	-2869
▁intri	-2870
▁sorry	-2871
▁unbelie	-2872
▁draw	-2873
▁record	-2874
▁complex	-2875
uter	-2876
▁Pro	-2877
▁biz	-2878
▁mel	-2879
▁uses	-2880
▁explo	-2881
▁("	-2882
room	-2883
▁cute	-2884
▁medi	-2885
▁sees	-2886
▁flash	-2887
▁whatever	-2888
imp	-2889
par	-2890
iving	-2891
▁immedi	-2892
Wh	-2893
come	-2894
▁funn	-2895
▁rece	-2896
ishing	-2897
ossible	-2898
▁Europe	-2899
▁waiting	-2900
▁convincing	-2901
aine	-2902
ictor	-2903
▁World	-2904
cher	-2905
▁impro	-2906
▁spent	-2907
▁credit	-2908
▁hy	-2909
▁ble	-2910
▁mod	-2911
▁created	-2912
It	-2913
rage	-2914
oop	-2915
▁porn	-2916
▁wrote	-2917
▁slightly	-2918
ha	-2919
con	-2920
▁Red	-2921
▁brief	-2922
ibility	-2923
▁entirely	-2924
▁Mad	-2925
▁rap	-2926
lusion	-2927
▁amb	-2928
ieces	-2929
▁former	-2930
▁tension	-2931
acy	-2932
▁Ir	-2933
▁rate	-2934
▁solid	-2935
▁monster	-2936
lu	-2937
▁15	-2938
ette	-2939
▁Let	-2940
▁offic	-2941
itation	-2942
▁control	-2943
▁Director	-2944
▁Tra	-2945
▁idi	-2946
acher	-2947
lict	-2948
▁moves	-2949
▁pointless	-2950
bl	-2951
alt	-2952
vil	-2953
▁wall	-2954
▁stick	-2955
inating	-2956
▁choice	-2957
▁laughing	-2958
oph	-2959
▁water	-2960
▁color	-2961
▁ghost	-2962
▁successful	-2963
rom	-2964
arry	-2965
▁Big	-2966
▁ine	-2967
vern	-2968
▁Fin	-2969
aging	-2970
▁mass	-2971
emy	-2972
men	-2973
uine	-2974
▁Perhaps	-2975
VER	-2976
gend	-2977
▁196	-2978
ective	-2979
cing	-2980
▁value	-2981
▁accent	-2982
▁escape	-2983
▁satisf	-2984
ED	-2985
▁rad	-2986
ashion	-2987
▁portrayal	-2988
OW	-2989
▁boys	-2990
rian	-2991
▁Italian	-2992
▁effective	-2993
▁following	-2994
▁appreciate	-2995
▁intelligent	-2996
▁unfortunately	-2997
ilt	-2998
▁jud	-2999
uthor	-3000
▁recent	-3001
▁subtle	-3002
standing	-3003
▁slasher	-3004
▁exciting	-3005
!!!!	-3006
iers	-3007
inary	-3008
▁Rock	-3009
▁biggest	-3010
while	-3011
▁kills	-3012
▁travel	-3013
iced	-3014
▁Hor	-3015
▁Mon	-3016
▁arri	-3017
▁wild	-3018
boy	-3019
▁Bat	-3020
▁jump	-3021
▁compe	-3022
OM	-3023
cast	-3024
▁spend	-3025
▁store	-3026
▁Bur	-3027
▁mach	-3028
▁breat	-3029
▁zombie	-3030
▁concern	-3031
▁genuine	-3032
▁died	-3033
▁brain	-3034
▁forgot	-3035
▁amusing	-3036
▁incredible	-3037
▁Dead	-3038
▁follows	-3039
ging	-3040
▁stereotyp	-3041
aven	-3042
▁focus	-3043
str	-3044
▁critic	-3045
▁opportun	-3046
▁Lou	-3047
ateur	-3048
itary	-3049
▁dancing	-3050
▁Van	-3051
▁fit	-3052
▁contr	-3053
▁repres	-3054
▁impressive	-3055
idered	-3056
mistry	-3057
▁younger	-3058
▁books	-3059
▁Victor	-3060
▁singing	-3061
▁language	-3062
▁II	-3063
▁Best	-3064
▁Park	-3065
▁Tony	-3066
lect	-3067
▁glad	-3068
▁rede	-3069
▁earth	-3070
▁depict	-3071
PO	-3072
▁showed	-3073
▁produced	-3074
▁Cor	-3075
▁week	-3076
▁exception	-3077
ribly	-3078
▁ball	-3079
▁brut	-3080
▁soul	-3081
▁tort	-3082
▁weren	-3083
▁bizarre	-3084
▁continu	-3085
▁fol	-3086
▁Afric	-3087
▁House	-3088
▁suspect	-3089
▁situations	-3090
Ch	-3091
St	-3092
▁crim	-3093
▁decide	-3094
▁trouble	-3095
▁compared	-3096
rel	-3097
▁otherwise	-3098
une	-3099
▁changed	-3100
ener	-3101
▁filled	-3102
ham	-3103
oes	-3104
arily	-3105
▁luck	-3106
▁danger	-3107
▁ground	-3108
▁suddenly	-3109
▁considered	-3110
▁Sure	-3111
▁revenge	-3112
▁chemistry	-3113
▁Stan	-3114
▁trip	-3115
▁pract	-3116
▁manner	-3117
▁purpose	-3118
▁violent	-3119
▁Cra	-3120
▁Smith	-3121
▁longer	-3122
irty	-3123
▁garb	-3124
▁runs	-3125
▁magic	-3126
▁western	-3127
▁questions	-3128
even	-3129
ified	-3130
ondon	-3131
▁spot	-3132
▁unin	-3133
▁Movie	-3134
▁failed	-3135
▁disturbing	-3136
rect	-3137
sters	-3138
ares	-3139
iles	-3140
▁fear	-3141
▁carry	-3142
fort	-3143
rick	-3144
▁100	-3145
▁Mel	-3146
▁anti	-3147
▁doll	-3148
▁bother	-3149
▁studio	-3150
▁amateur	-3151
plic	-3152
owers	-3153
▁compet	-3154
▁conclusion	-3155
IT	-3156
▁Ant	-3157
▁Alex	-3158
▁awesome	-3159
no	-3160
▁Super	-3161
ization	-3162
▁barely	-3163
▁favour	-3164
▁mer	-3165
annel	-3166
▁suit	-3167
▁trash	-3168
▁Anyway	-3169
▁appeal	-3170
▁fat	-3171
iding	-3172
▁baby	-3173
▁bull	-3174
▁tough	-3175
▁audiences	-3176
fi	-3177
ales	-3178
appe	-3179
sequ	-3180
▁taste	-3181
▁unless	-3182
gl	-3183
aper	-3184
▁shooting	-3185
▁producers	-3186
▁suc	-3187
▁values	-3188
▁likes	-3189
▁redeem	-3190
LE	-3191
known	-3192
▁party	-3193
▁affect	-3194
▁doctor	-3195
min	-3196
▁ST	-3197
▁194	-3198
iller	-3199
▁roll	-3200
▁assum	-3201
▁office	-3202
▁program	-3203
aus	-3204
▁sav	-3205
ength	-3206
opher	-3207
▁regard	-3208
▁impossible	-3209
thur	-3210
▁Ann	-3211
▁mood	-3212
▁pers	-3213
▁faith	-3214
▁natural	-3215
▁involving	-3216
000	-3217
▁beat	-3218
▁state	-3219
▁images	-3220
▁fake	-3221
▁track	-3222
▁disg	-3223
▁author	-3224
▁ability	-3225
▁****	-3226
▁Russ	-3227
▁culture	-3228
▁product	-3229
▁animated	-3230
▁Love	-3231
▁heavy	-3232
▁London	-3233
▁bought	-3234
▁Bro	-3235
▁college	-3236
formation	-3237
▁charming	-3238
ille	-3239
▁Yet	-3240
▁Very	-3241
▁hang	-3242
▁rare	-3243
ensive	-3244
▁humour	-3245
▁stunning	-3246
▁impression	-3247
ottom	-3248
▁City	-3249
▁kick	-3250
lessly	-3251
war	-3252
this	-3253
iring	-3254
riage	-3255
▁cold	-3256
▁rand	-3257
▁neigh	-3258
▁Though	-3259
▁company	-3260
▁succeed	-3261
▁appearance	-3262
▁90	-3263
▁Way	-3264
night	-3265
▁loud	-3266
▁refe	-3267
▁garbage	-3268
▁computer	-3269
▁immediately	-3270
anna	-3271
▁OF	-3272
▁Ro	-3273
mark	-3274
▁Boy	-3275
▁clot	-3276
▁test	-3277
▁unex	-3278
▁basic	-3279
▁adventure	-3280
izes	-3281
▁Sec	-3282
▁door	-3283
▁leaving	-3284
▁cross	-3285
▁street	-3286
▁pathetic	-3287
eg	-3288
iche	-3289
▁cru	-3290
▁Stewart	-3291
▁adaptation	-3292
urch	-3293
▁insult	-3294
▁obsess	-3295
uk	-3296
▁sci	-3297
▁ultimately	-3298
anic	-3299
▁Hen	-3300
idence	-3301
▁Steve	-3302
▁minor	-3303
▁People	-3304
▁contri	-3305
▁reveal	-3306
▁Despite	-3307
▁utterly	-3308
▁10.	-3309
▁Ham	-3310
▁fashion	-3311
inn	-3312
vey	-3313
rend	-3314
▁random	-3315
▁investig	-3316
▁tradition	-3317
ena	-3318
▁Earth	-3319
▁spect	-3320
vert	-3321
round	-3322
▁numb	-3323
reg	-3324
aire	-3325
▁uns	-3326
▁Harry	-3327
▁Where	-3328
▁occur	-3329
ressing	-3330
▁govern	-3331
stem	-3332
▁terms	-3333
▁climax	-3334
▁genius	-3335
▁terror	-3336
ological	-3337
▁Because	-3338
▁somewhere	-3339
ode	-3340
▁Mur	-3341
▁Jeff	-3342
▁thinks	-3343
ify	-3344
▁pack	-3345
▁deliver	-3346
▁neither	-3347
▁approach	-3348
▁lab	-3349
▁Only	-3350
▁mult	-3351
▁accur	-3352
▁absurd	-3353
▁starring	-3354
▁considering	-3355
▁dad	-3356
▁seg	-3357
movie	-3358
▁High	-3359
▁grap	-3360
▁Indian	-3361
AS	-3362
▁pu	-3363
▁sitting	-3364
ILER	-3365
▁Bru	-3366
▁god	-3367
house	-3368
▁road	-3369
▁search	-3370
▁Christian	-3371
OO	-3372
▁cause	-3373
▁managed	-3374
anda	-3375
▁Two	-3376
▁pun	-3377
unting	-3378
▁standard	-3379
iven	-3380
▁dig	-3381
▁lau	-3382
▁added	-3383
▁indust	-3384
bb	-3385
that	-3386
▁Bel	-3387
▁def	-3388
ropri	-3389
itions	-3390
▁Kelly	-3391
reaking	-3392
▁touching	-3393
▁Go	-3394
uster	-3395
▁defe	-3396
POILER	-3397
▁fresh	-3398
▁notice	-3399
▁unbelievable	-3400
yle	-3401
▁repl	-3402
▁likely	-3403
▁generally	-3404
ID	-3405
aff	-3406
▁fully	-3407
▁normal	-3408
elling	-3409
▁charm	-3410
▁themes	-3411
▁Charlie	-3412
▁terrific	-3413
▁gem	-3414
▁tone	-3415
▁force	-3416
▁comedies	-3417
▁narrative	-3418
▁Den	-3419
▁threat	-3420
▁twists	-3421
▁nowhere	-3422
▁remains	-3423
OV	-3424
awn	-3425
vir	-3426
▁wee	-3427
▁curi	-3428
▁addition	-3429
▁constantly	-3430
▁Ag	-3431
▁six	-3432
▁drive	-3433
▁serial	-3434
▁mistake	-3435
▁conflict	-3436
▁laughable	-3437
▁month	-3438
▁dro	-3439
aining	-3440
making	-3441
played	-3442
▁issues	-3443
▁presence	-3444
▁literally	-3445
BC	-3446
you	-3447
▁gag	-3448
esides	-3449
ailable	-3450
rag	-3451
▁Sw	-3452
ands	-3453
▁system	-3454
▁intrigu	-3455
▁respons	-3456
▁zombies	-3457
cer	-3458
riff	-3459
▁Dick	-3460
▁element	-3461
▁presented	-3462
▁beautifully	-3463
lyn	-3464
orts	-3465
anted	-3466
▁Miss	-3467
oughly	-3468
▁finish	-3469
AD	-3470
▁boss	-3471
▁sexy	-3472
▁scenery	-3473
▁costumes	-3474
▁interview	-3475
▁Cal	-3476
▁Adam	-3477
▁offe	-3478
▁military	-3479
▁pictures	-3480
irth	-3481
▁cho	-3482
lease	-3483
▁prep	-3484
▁train	-3485
▁equally	-3486
▁painful	-3487
▁witness	-3488
▁jo	-3489
part	-3490
▁sto	-3491
ability	-3492
estival	-3493
▁individ	-3494
▁cinematic	-3495
▁surprisingly	-3496
▁disappointing	-3497
▁Ber	-3498
ision	-3499
▁drawn	-3500
▁throw	-3501
▁places	-3502
▁thrown	-3503
▁squ	-3504
▁bomb	-3505
▁warn	-3506
▁artist	-3507
▁details	-3508
▁Cr	-3509
▁ur	-3510
▁leg	-3511
ached	-3512
rences	-3513
▁Paris	-3514
▁offer	-3515
▁marriage	-3516
▁flashback	-3517
▁disappointment	-3518
▁smart	-3519
▁makers	-3520
▁science	-3521
▁Part	-3522
▁Story	-3523
▁alive	-3524
▁chall	-3525
▁excuse	-3526
▁aspects	-3527
▁Bas	-3528
▁Ray	-3529
▁dreams	-3530
▁knowing	-3531
▁innocent	-3532
cle	-3533
▁80'	-3534
heart	-3535
▁stands	-3536
▁18	-3537
▁Fl	-3538
ribe	-3539
▁log	-3540
itude	-3541
▁okay	-3542
▁escap	-3543
▁expectations	-3544
face	-3545
▁animals	-3546
▁destroy	-3547
▁suppose	-3548
▁feelings	-3549
▁photography	-3550
▁Sci	-3551
▁influ	-3552
▁slowly	-3553
▁historical	-3554
▁outstanding	-3555
▁Bob	-3556
▁key	-3557
▁date	-3558
▁behav	-3559
▁Nothing	-3560
▁boyfriend	-3561
▁recommended	-3562
ken	-3563
aint	-3564
arsh	-3565
athy	-3566
▁Dou	-3567
▁spec	-3568
▁hoping	-3569
▁describ	-3570
▁discuss	-3571
ica	-3572
aton	-3573
▁Pal	-3574
▁Str	-3575
▁Tre	-3576
▁har	-3577
▁spl	-3578
▁subst	-3579
▁medioc	-3580
▁opportunity	-3581
▁plus	-3582
▁Allen	-3583
▁compar	-3584
▁island	-3585
▁journey	-3586
rid	-3587
oned	-3588
▁burn	-3589
▁init	-3590
illing	-3591
▁drunk	-3592
▁affair	-3593
▁century	-3594
she	-3595
icide	-3596
▁demon	-3597
▁million	-3598
▁Sand	-3599
▁breath	-3600
▁filming	-3601
▁Angel	-3602
▁names	-3603
▁mysterious	-3604
anch	-3605
▁sett	-3606
▁commer	-3607
▁lovely	-3608
▁proper	-3609
▁photograp	-3610
ss	-3611
ancy	-3612
asty	-3613
▁mir	-3614
▁Hard	-3615
▁ener	-3616
▁soft	-3617
▁walking	-3618
▁contains	-3619
▁emotions	-3620
▁intended	-3621
▁surround	-3622
itz	-3623
just	-3624
ploy	-3625
▁Mus	-3626
▁See	-3627
elebr	-3628
under	-3629
▁Once	-3630
▁intern	-3631
▁happening	-3632
▁individual	-3633
CH	-3634
hol	-3635
ini	-3636
▁CG	-3637
▁Jes	-3638
▁ast	-3639
oking	-3640
▁Chris	-3641
▁passion	-3642
▁protagon	-3643
▁soldiers	-3644
yl	-3645
ghed	-3646
icip	-3647
▁din	-3648
▁lif	-3649
▁South	-3650
▁sight	-3651
▁fascinating	-3652
appy	-3653
▁pil	-3654
▁drug	-3655
▁puts	-3656
▁intense	-3657
▁compelling	-3658
IE	-3659
inct	-3660
▁Young	-3661
▁moral	-3662
▁tired	-3663
▁fright	-3664
▁changes	-3665
▁likable	-3666
▁government	-3667
▁80	-3668
uous	-3669
▁Many	-3670
▁acts	-3671
gue	-3672
▁dim	-3673
▁dies	-3674
▁loves	-3675
▁include	-3676
▁Bo	-3677
▁ride	-3678
icated	-3679
▁length	-3680
▁available	-3681
▁difference	-3682
ural	-3683
▁qual	-3684
▁object	-3685
▁silent	-3686
▁building	-3687
lla	-3688
uit	-3689
ples	-3690
▁ted	-3691
▁West	-3692
▁fool	-3693
▁serv	-3694
budget	-3695
▁pieces	-3696
entially	-3697
▁Christopher	-3698
▁Te	-3699
exic	-3700
onna	-3701
▁lad	-3702
ishes	-3703
istent	-3704
▁Rog	-3705
anced	-3706
table	-3707
▁magn	-3708
▁noir	-3709
IG	-3710
mar	-3711
pro	-3712
▁mat	-3713
ledge	-3714
▁legend	-3715
▁developed	-3716
tend	-3717
▁hasn	-3718
▁ship	-3719
▁teacher	-3720
ta	-3721
abb	-3722
down	-3723
gged	-3724
orter	-3725
▁base	-3726
▁loose	-3727
▁mouth	-3728
▁share	-3729
▁fellow	-3730
▁victims	-3731
▁appeared	-3732
?!	-3733
ki	-3734
▁edge	-3735
▁thor	-3736
▁critics	-3737
▁Ey	-3738
▁IS	-3739
▁ord	-3740
▁Dark	-3741
▁Jean	-3742
▁thank	-3743
ospital	-3744
▁Charles	-3745
▁WW	-3746
text	-3747
▁Canad	-3748
▁Henry	-3749
▁drink	-3750
▁lacks	-3751
orgeous	-3752
▁adults	-3753
▁detective	-3754
ustr	-3755
▁Tar	-3756
▁ham	-3757
▁Bruce	-3758
▁celebr	-3759
azz	-3760
cra	-3761
▁40	-3762
▁Bad	-3763
▁damn	-3764
ipp	-3765
▁50	-3766
▁Lo	-3767
This	-3768
raid	-3769
ander	-3770
▁melod	-3771
▁negative	-3772
pret	-3773
▁Pol	-3774
ushed	-3775
▁Mark	-3776
▁Somet	-3777
▁flaws	-3778
▁helps	-3779
▁numbers	-3780
▁confused	-3781
▁relationships	-3782
▁Gl	-3783
▁Spe	-3784
▁content	-3785
▁trailer	-3786
ET	-3787
▁Co	-3788
erous	-3789
▁Jones	-3790
▁Steven	-3791
▁motion	-3792
▁commercial	-3793
▁X	-3794
▁image	-3795
▁proves	-3796
▁current	-3797
▁student	-3798
▁followed	-3799
kin	-3800
▁joy	-3801
▁unne	-3802
▁Green	-3803
▁disgust	-3804
▁prim	-3805
pected	-3806
▁Never	-3807
▁wondering	-3808
▁cell	-3809
▁virt	-3810
akespe	-3811
▁clean	-3812
▁laughed	-3813
▁confusing	-3814
▁standards	-3815
wor	-3816
▁Av	-3817
ency	-3818
▁Mag	-3819
▁Nor	-3820
.....	-3821
▁latter	-3822
▁delivers	-3823
▁dubb	-3824
▁Mexic	-3825
▁dread	-3826
▁fault	-3827
▁lived	-3828
▁merely	-3829
▁falling	-3830
▁lighting	-3831
▁imagination	-3832
gly	-3833
▁Ye	-3834
ront	-3835
▁Both	-3836
▁mart	-3837
▁unus	-3838
▁ahead	-3839
▁quiet	-3840
▁tragedy	-3841
▁provides	-3842
▁students	-3843
▁childhood	-3844
ein	-3845
▁irrit	-3846
▁flicks	-3847
▁forever	-3848
▁discover	-3849
▁gorgeous	-3850
▁impressed	-3851
▁den	-3852
▁Carl	-3853
▁Step	-3854
▁rout	-3855
▁wise	-3856
▁multi	-3857
▁naked	-3858
▁Batman	-3859
▁Martin	-3860
▁remote	-3861
abl	-3862
▁du	-3863
life	-3864
writer	-3865
▁lover	-3866
▁oppos	-3867
▁impact	-3868
▁mediocre	-3869
asure	-3870
field	-3871
▁Barb	-3872
▁Sant	-3873
▁hide	-3874
▁Davis	-3875
▁youth	-3876
ilities	-3877
▁offers	-3878
▁brothers	-3879
In	-3880
▁div	-3881
▁hig	-3882
dered	-3883
herent	-3884
▁host	-3885
▁independ	-3886
▁oh	-3887
asing	-3888
▁More	-3889
▁gold	-3890
▁paid	-3891
▁alien	-3892
▁mainly	-3893
▁tragic	-3894
▁formula	-3895
▁becoming	-3896
▁highlight	-3897
▁attractive	-3898
▁thoroughly	-3899
itor	-3900
inese	-3901
▁chase	-3902
▁nobody	-3903
▁central	-3904
ops	-3905
▁rip	-3906
▁Please	-3907
▁answer	-3908
▁achieve	-3909
▁murders	-3910
▁funniest	-3911
.,	-3912
ffe	-3913
▁fort	-3914
▁Billy	-3915
▁Jerry	-3916
▁folks	-3917
▁Having	-3918
▁Austral	-3919
▁disaster	-3920
/2	-3921
▁fac	-3922
▁disappe	-3923
▁Williams	-3924
osh	-3925
see	-3926
yer	-3927
▁Phil	-3928
▁rape	-3929
▁rated	-3930
▁planet	-3931
▁justice	-3932
▁creative	-3933
▁Ms	-3934
rama	-3935
▁Hit	-3936
▁Shakespe	-3937
LY	-3938
▁Day	-3939
▁sun	-3940
aries	-3941
▁fiction	-3942
▁hospital	-3943
lled	-3944
▁AND	-3945
▁Hol	-3946
▁adds	-3947
▁knock	-3948
▁reach	-3949
▁stuck	-3950
▁double	-3951
▁surely	-3952
▁producer	-3953
▁reminded	-3954
mbol	-3955
▁held	-3956
▁nons	-3957
▁Little	-3958
▁spectac	-3959
▁willing	-3960
▁honestly	-3961
/10.	-3962
ivil	-3963
▁contem	-3964
▁seemingly	-3965
azy	-3966
▁Du	-3967
hero	-3968
▁Too	-3969
board	-3970
icious	-3971
▁twice	-3972
▁afraid	-3973
▁process	-3974
▁occasion	-3975
▁actresses	-3976
▁bi	-3977
iday	-3978
▁forgotten	-3979
▁information	-3980
good	-3981
▁blond	-3982
▁eight	-3983
▁rented	-3984
▁apartment	-3985
ooks	-3986
▁Did	-3987
▁Sad	-3988
▁ver	-3989
agger	-3990
irgin	-3991
rough	-3992
▁asks	-3993
▁blind	-3994
▁market	-3995
▁Jackson	-3996
▁correct	-3997
▁putting	-3998
▁describe	-3999
▁industry	-4000
AL	-4001
now	-4002
▁ge	-4003
oted	-4004
▁resc	-4005
▁Since	-4006
▁aside	-4007
▁ready	-4008
▁Arthur	-4009
▁Americans	-4010
hor	-4011
▁12	-4012
▁Wal	-4013
▁seconds	-4014
alled	-4015
anish	-4016
▁onto	-4017
▁race	-4018
▁round	-4019
entious	-4020
▁anymore	-4021
▁personality	-4022
rog	-4023
▁App	-4024
aches	-4025
ament	-4026
▁wide	-4027
▁giant	-4028
▁sadly	-4029
▁streng	-4030
▁convers	-4031
AY	-4032
oos	-4033
ras	-4034
uts	-4035
▁unw	-4036
▁faces	-4037
▁picked	-4038
ech	-4039
zan	-4040
▁Jon	-4041
▁aim	-4042
▁eat	-4043
illed	-4044
▁Alan	-4045
▁area	-4046
▁clothes	-4047
▁turning	-4048
▁location	-4049
▁redeeming	-4050
▁drag	-4051
▁lose	-4052
▁path	-4053
▁thin	-4054
▁nasty	-4055
▁opera	-4056
▁helped	-4057
▁relative	-4058
▁filmmaker	-4059
▁professional	-4060
IC	-4061
vol	-4062
▁news	-4063
▁Their	-4064
▁mount	-4065
▁bottom	-4066
▁desert	-4067
▁allowed	-4068
▁finding	-4069
▁collection	-4070
eal	-4071
gar	-4072
mes	-4073
▁Lyn	-4074
▁bright	-4075
▁explan	-4076
entional	-4077
▁struggle	-4078
iac	-4079
ium	-4080
▁Fox	-4081
▁Sar	-4082
soever	-4083
▁began	-4084
athetic	-4085
▁member	-4086
▁thanks	-4087
▁underst	-4088
▁Shakespeare	-4089
ios	-4090
ita	-4091
▁70	-4092
▁Sin	-4093
▁led	-4094
▁rac	-4095
▁Blood	-4096
▁accom	-4097
▁broad	-4098
▁moved	-4099
▁symbol	-4100
▁unreal	-4101
▁shouldn	-4102
▁necessary	-4103
▁unexpected	-4104
sey	-4105
eman	-4106
▁gri	-4107
▁mut	-4108
aylor	-4109
▁Brian	-4110
▁trust	-4111
▁station	-4112
▁superior	-4113
▁whatsoever	-4114
.'	-4115
win	-4116
▁Win	-4117
▁grow	-4118
▁favourite	-4119
ube	-4120
leep	-4121
arded	-4122
▁wooden	-4123
▁includes	-4124
▁inspired	-4125
aded	-4126
glas	-4127
mare	-4128
requ	-4129
year	-4130
▁Edd	-4131
▁warm	-4132
▁Everything	-4133
uman	-4134
▁pen	-4135
▁bank	-4136
ropriate	-4137
▁insight	-4138
▁shocking	-4139
▁scientist	-4140
ka	-4141
▁ON	-4142
ache	-4143
▁tar	-4144
▁angry	-4145
▁block	-4146
▁drugs	-4147
▁hotel	-4148
▁Harris	-4149
▁Chinese	-4150
▁artistic	-4151
ifer	-4152
▁deeply	-4153
▁actions	-4154
▁supposedly	-4155
▁intelligence	-4156
AM	-4157
An	-4158
▁70'	-4159
▁deb	-4160
▁Walk	-4161
▁buff	-4162
pective	-4163
▁everybody	-4164
erk	-4165
▁na	-4166
ateg	-4167
film	-4168
rors	-4169
ashed	-4170
▁remem	-4171
▁encoun	-4172
▁repeated	-4173
▁technical	-4174
abe	-4175
owd	-4176
osen	-4177
▁tem	-4178
▁depart	-4179
▁wonderfully	-4180
afe	-4181
▁Sl	-4182
▁McC	-4183
▁Roy	-4184
▁Nick	-4185
▁club	-4186
▁energy	-4187
▁resemb	-4188
▁vision	-4189
▁Stephen	-4190
▁physical	-4191
▁friendship	-4192
You	-4193
▁Ac	-4194
▁hint	-4195
▁react	-4196
▁vampire	-4197
▁realized	-4198
▁introduced	-4199
AC	-4200
mi	-4201
roc	-4202
▁sour	-4203
▁weap	-4204
edding	-4205
▁tears	-4206
▁Douglas	-4207
▁comedic	-4208
▁provide	-4209
aud	-4210
▁IN	-4211
▁hat	-4212
ading	-4213
▁phone	-4214
▁continue	-4215
▁strength	-4216
▁commentary	-4217
▁WH	-4218
▁Zomb	-4219
▁sell	-4220
▁Robin	-4221
▁holes	-4222
▁Taylor	-4223
▁employ	-4224
▁listen	-4225
hand	-4226
otes	-4227
wolf	-4228
▁Dam	-4229
▁Les	-4230
▁pair	-4231
Americ	-4232
ording	-4233
▁aware	-4234
▁worthy	-4235
▁deserved	-4236
apped	-4237
▁bene	-4238
▁hook	-4239
▁dying	-4240
▁loving	-4241
▁Finally	-4242
▁neighbor	-4243
▁la	-4244
uddy	-4245
vate	-4246
▁Luc	-4247
▁pra	-4248
▁Ford	-4249
▁tend	-4250
▁plane	-4251
▁brutal	-4252
▁martial	-4253
▁possess	-4254
▁anywhere	-4255
▁pleasure	-4256
▁unnecessary	-4257
irk	-4258
▁11	-4259
▁Was	-4260
▁rubb	-4261
▁ugly	-4262
▁flying	-4263
▁scared	-4264
▁channel	-4265
▁wearing	-4266
▁progress	-4267
▁remarkable	-4268
TH	-4269
illa	-4270
▁der	-4271
▁Show	-4272
▁epic	-4273
▁thus	-4274
▁agent	-4275
▁elect	-4276
▁Keaton	-4277
▁mental	-4278
▁DO	-4279
▁doz	-4280
▁rat	-4281
ademy	-4282
ovies	-4283
▁kidn	-4284
▁scare	-4285
▁woods	-4286
▁Morgan	-4287
▁unusual	-4288
▁contrast	-4289
▁signific	-4290
▁Er	-4291
▁Sus	-4292
rical	-4293
▁Andy	-4294
▁food	-4295
▁slap	-4296
▁Danny	-4297
▁memory	-4298
▁perform	-4299
▁suicide	-4300
▁knowledge	-4301
▁personally	-4302
enge	-4303
ipul	-4304
▁CGI	-4305
▁deg	-4306
▁fif	-4307
cture	-4308
▁engaging	-4309
▁finished	-4310
▁speaking	-4311
mm	-4312
▁Lau	-4313
kward	-4314
odies	-4315
▁Joan	-4316
▁Life	-4317
▁loss	-4318
undred	-4319
▁relie	-4320
▁humans	-4321
▁Brother	-4322
▁accompl	-4323
▁compare	-4324
▁surprising	-4325
!).	-4326
▁VH	-4327
▁cal	-4328
ators	-4329
▁Those	-4330
▁birth	-4331
▁teenage	-4332
ugs	-4333
bian	-4334
▁Hel	-4335
▁coun	-4336
father	-4337
▁England	-4338
▁desperate	-4339
do	-4340
esh	-4341
▁Ol	-4342
adow	-4343
rous	-4344
▁Jud	-4345
▁Lind	-4346
▁empt	-4347
▁asked	-4348
▁holds	-4349
▁motiv	-4350
▁expert	-4351
Sh	-4352
▁bits	-4353
▁Jason	-4354
▁debut	-4355
▁Second	-4356
▁account	-4357
▁awkward	-4358
▁Jr	-4359
▁Ry	-4360
,000	-4361
olds	-4362
xual	-4363
oring	-4364
owell	-4365
▁Jenn	-4366
▁grat	-4367
▁mild	-4368
terest	-4369
▁bland	-4370
▁visit	-4371
▁Hitler	-4372
▁prefer	-4373
▁limited	-4374
▁instance	-4375
▁intriguing	-4376
-1	-4377
Bl	-4378
kes	-4379
ario	-4380
ousy	-4381
▁Bar	-4382
▁Wil	-4383
bered	-4384
▁White	-4385
▁vehic	-4386
rifying	-4387
▁target	-4388
▁Russian	-4389
▁wanting	-4390
port	-4391
▁crowd	-4392
▁pilot	-4393
▁Andrew	-4394
▁pacing	-4395
▁rarely	-4396
▁sentiment	-4397
▁watchable	-4398
SE	-4399
rs	-4400
eper	-4401
miss	-4402
omen	-4403
▁bal	-4404
▁sac	-4405
▁Pres	-4406
▁craft	-4407
▁reminds	-4408
especially	-4409
▁religious	-4410
UT	-4411
▁lay	-4412
tered	-4413
▁Jose	-4414
▁impl	-4415
▁smile	-4416
▁belong	-4417
▁gotten	-4418
▁deserve	-4419
▁hundred	-4420
ano	-4421
rie	-4422
uct	-4423
ilst	-4424
▁suck	-4425
orious	-4426
▁horse	-4427
▁Daniel	-4428
▁criminal	-4429
▁independent	-4430
iro	-4431
teen	-4432
▁Sil	-4433
▁bur	-4434
▁cow	-4435
cient	-4436
ooper	-4437
▁hurt	-4438
▁lets	-4439
▁clichés	-4440
▁Everyone	-4441
▁accurate	-4442
▁13	-4443
▁2.	-4444
▁Jew	-4445
▁Pac	-4446
▁ing	-4447
▁born	-4448
▁enth	-4449
▁tour	-4450
▁stret	-4451
▁Horror	-4452
▁explos	-4453
▁capture	-4454
▁torture	-4455
▁winning	-4456
plot	-4457
ourne	-4458
▁Which	-4459
aturally	-4460
ominated	-4461
▁players	-4462
mo	-4463
ogy	-4464
▁1.	-4465
▁Naz	-4466
▁Rus	-4467
▁opt	-4468
▁ris	-4469
▁wond	-4470
▁Eddie	-4471
▁board	-4472
▁freak	-4473
▁separ	-4474
▁creature	-4475
eed	-4476
oom	-4477
abor	-4478
rays	-4479
▁rul	-4480
▁arts	-4481
▁blame	-4482
▁church	-4483
▁anybody	-4484
▁unknown	-4485
▁constant	-4486
▁explained	-4487
▁explanation	-4488
TV	-4489
imal	-4490
stein	-4491
▁Lynch	-4492
▁hated	-4493
entions	-4494
ruction	-4495
▁Before	-4496
▁desire	-4497
▁Western	-4498
▁interpret	-4499
▁Del	-4500
▁Ron	-4501
▁cops	-4502
▁aband	-4503
▁manage	-4504
▁community	-4505
▁pretentious	-4506
▁?	-4507
atra	-4508
reck	-4509
▁Law	-4510
▁pet	-4511
▁hadn	-4512
▁heads	-4513
▁issue	-4514
▁media	-4515
▁Albert	-4516
▁Johnny	-4517
▁belief	-4518
▁magnific	-4519
aly	-4520
rem	-4521
ounds	-4522
▁guns	-4523
▁phil	-4524
▁categ	-4525
▁regret	-4526
▁protect	-4527
▁creating	-4528
▁Sy	-4529
esty	-4530
atory	-4531
pless	-4532
▁Kate	-4533
▁Lady	-4534
▁thous	-4535
▁Columb	-4536
▁convin	-4537
▁toward	-4538
pr	-4539
▁Cam	-4540
unted	-4541
▁Okay	-4542
▁soap	-4543
▁mixed	-4544
▁radio	-4545
▁uncon	-4546
looking	-4547
▁nicely	-4548
▁Im	-4549
ewis	-4550
lock	-4551
othy	-4552
▁VHS	-4553
▁cars	-4554
▁grad	-4555
▁text	-4556
▁floor	-4557
▁hopes	-4558
▁stink	-4559
▁lovers	-4560
▁growing	-4561
▁returns	-4562
▁vo	-4563
stal	-4564
▁Fre	-4565
iance	-4566
▁chore	-4567
▁games	-4568
▁hidden	-4569
▁pulled	-4570
▁context	-4571
▁heroine	-4572
▁results	-4573
▁responsible	-4574
vy	-4575
soci	-4576
hered	-4577
▁Eric	-4578
▁Hall	-4579
▁award	-4580
▁chick	-4581
▁thats	-4582
▁Street	-4583
▁fights	-4584
▁proceed	-4585
▁treated	-4586
▁humanity	-4587
▁villains	-4588
▁intellect	-4589
arp	-4590
▁Li	-4591
asts	-4592
vant	-4593
▁hyp	-4594
▁tur	-4595
▁army	-4596
▁lies	-4597
ushing	-4598
▁months	-4599
director	-4600
▁included	-4601
▁memories	-4602
▁/	-4603
ned	-4604
▁ic	-4605
cock	-4606
▁Kid	-4607
▁REA	-4608
▁desp	-4609
▁stock	-4610
▁determ	-4611
▁player	-4612
▁charism	-4613
ashington	-4614
▁behavior	-4615
▁understanding	-4616
);	-4617
star	-4618
ueen	-4619
▁hits	-4620
▁skin	-4621
natural	-4622
▁finest	-4623
▁noticed	-4624
▁rubbish	-4625
▁Wr	-4626
omas	-4627
▁Tit	-4628
point	-4629
▁Girl	-4630
▁card	-4631
▁earn	-4632
▁mine	-4633
▁Death	-4634
▁field	-4635
▁circum	-4636
▁skills	-4637
▁Spanish	-4638
▁partner	-4639
▁soldier	-4640
▁terribly	-4641
bad	-4642
vit	-4643
oons	-4644
oses	-4645
umps	-4646
▁Men	-4647
▁Sid	-4648
thony	-4649
▁East	-4650
▁Mike	-4651
▁fate	-4652
▁animal	-4653
▁twenty	-4654
▁concerned	-4655
▁represent	-4656
entle	-4657
▁Bond	-4658
▁Lord	-4659
▁safe	-4660
▁lacking	-4661
▁European	-4662
▁perspective	-4663
isa	-4664
ulf	-4665
▁Mi	-4666
cise	-4667
iful	-4668
ivity	-4669
▁Hell	-4670
▁ring	-4671
▁Space	-4672
▁frequ	-4673
▁bloody	-4674
ensional	-4675
▁dangerous	-4676
▁Washington	-4677
nie	-4678
sen	-4679
away	-4680
▁Ram	-4681
▁Ver	-4682
agers	-4683
▁paint	-4684
▁Freddy	-4685
▁finale	-4686
▁imagin	-4687
▁talents	-4688
gn	-4689
isc	-4690
▁fab	-4691
icked	-4692
▁Thank	-4693
▁saved	-4694
▁transl	-4695
fortable	-4696
▁reaction	-4697
▁delightful	-4698
▁(2	-4699
sion	-4700
▁ban	-4701
ulous	-4702
▁Gene	-4703
▁Simon	-4704
▁tight	-4705
▁numerous	-4706
▁opposite	-4707
▁continues	-4708
▁***	-4709
▁boo	-4710
▁Cass	-4711
▁Jesus	-4712
▁prove	-4713
▁resol	-4714
▁assist	-4715
▁SPOILER	-4716
▁Superman	-4717
▁locations	-4718
▁60	-4719
▁Gar	-4720
▁Hart	-4721
▁Look	-4722
screen	-4723
▁dated	-4724
▁incre	-4725
▁loses	-4726
▁breaks	-4727
▁heroes	-4728
▁priest	-4729
▁wealth	-4730
za	-4731
???	-4732
rix	-4733
ails	-4734
▁Bet	-4735
▁mob	-4736
▁sin	-4737
▁van	-4738
ilies	-4739
▁Last	-4740
▁gags	-4741
▁deals	-4742
▁naive	-4743
▁sucks	-4744
▁manipul	-4745
▁theatre	-4746
▁humorous	-4747
▁murdered	-4748
▁reviewers	-4749
▁Val	-4750
ribut	-4751
▁Jess	-4752
▁THIS	-4753
▁Kevin	-4754
▁below	-4755
▁cable	-4756
▁empty	-4757
▁troub	-4758
▁witch	-4759
▁bigger	-4760
▁satire	-4761
▁unfunny	-4762
▁traditional	-4763
oh	-4764
***	-4765
etic	-4766
▁ner	-4767
ummer	-4768
▁kinda	-4769
▁opens	-4770
▁remain	-4771
▁keeping	-4772
▁captured	-4773
▁discovered	-4774
He	-4775
bur	-4776
lle	-4777
▁ens	-4778
▁Jimmy	-4779
▁model	-4780
▁owner	-4781
▁unint	-4782
▁summer	-4783
▁dealing	-4784
▁efforts	-4785
▁circumst	-4786
tw	-4787
asm	-4788
irm	-4789
upp	-4790
sell	-4791
anned	-4792
urity	-4793
▁Broad	-4794
▁calls	-4795
▁organ	-4796
arently	-4797
▁advice	-4798
▁forces	-4799
▁driving	-4800
▁regular	-4801
▁received	-4802
▁starting	-4803
ads	-4804
they	-4805
▁Had	-4806
▁Int	-4807
▁gru	-4808
ching	-4809
▁Coll	-4810
▁Rose	-4811
▁Avoid	-4812
▁steal	-4813
▁Welles	-4814
American	-4815
although	-4816
▁learned	-4817
▁confront	-4818
▁distract	-4819
▁psychological	-4820
Al	-4821
pir	-4822
uel	-4823
▁ju	-4824
oore	-4825
▁sal	-4826
▁sed	-4827
arner	-4828
alling	-4829
▁cameo	-4830
▁frame	-4831
▁incomp	-4832
▁display	-4833
▁survive	-4834
▁nonsense	-4835
▁revealed	-4836
OL	-4837
tr	-4838
ups	-4839
idge	-4840
ruct	-4841
▁tor	-4842
hester	-4843
iverse	-4844
▁marry	-4845
▁insane	-4846
▁corrupt	-4847
▁machine	-4848
▁versions	-4849
spe	-4850
itter	-4851
osaur	-4852
there	-4853
unter	-4854
▁bath	-4855
▁cuts	-4856
atives	-4857
▁uncle	-4858
hearted	-4859
▁philos	-4860
▁realism	-4861
▁shallow	-4862
▁comparison	-4863
uh	-4864
ILL	-4865
ban	-4866
▁14	-4867
▁Rom	-4868
▁Capt	-4869
▁grew	-4870
▁park	-4871
onment	-4872
▁print	-4873
▁decade	-4874
▁ladies	-4875
▁proved	-4876
▁visuals	-4877
▁existence	-4878
▁originally	-4879
hent	-4880
hern	-4881
mary	-4882
▁dry	-4883
▁Leon	-4884
▁Sean	-4885
▁educ	-4886
▁hall	-4887
▁junk	-4888
porary	-4889
▁grown	-4890
▁sword	-4891
▁surreal	-4892
▁somebody	-4893
▁genuinely	-4894
▁remembered	-4895
top	-4896
ued	-4897
▁Ev	-4898
▁Rain	-4899
▁inex	-4900
ivered	-4901
▁court	-4902
▁press	-4903
▁allows	-4904
▁officer	-4905
▁ordinary	-4906
▁experiment	-4907
▁Add	-4908
▁pit	-4909
ordon	-4910
▁Kong	-4911
▁blue	-4912
▁disp	-4913
▁fict	-4914
▁Again	-4915
▁dress	-4916
▁Really	-4917
▁African	-4918
▁Anthony	-4919
▁consist	-4920
▁segment	-4921
▁experien	-4922
▁therefore	-4923
acc	-4924
▁Fe	-4925
mble	-4926
▁Mal	-4927
▁fle	-4928
▁inh	-4929
ashes	-4930
▁Sund	-4931
luding	-4932
▁frank	-4933
▁uncom	-4934
▁higher	-4935
▁overly	-4936
▁foreign	-4937
▁gangster	-4938
▁featuring	-4939
ym	-4940
▁Es	-4941
▁arm	-4942
▁Cage	-4943
▁sake	-4944
▁Hitch	-4945
▁green	-4946
▁speed	-4947
▁witty	-4948
▁passed	-4949
▁relief	-4950
Jo	-4951
▁bat	-4952
▁Cast	-4953
▁EVER	-4954
▁Gary	-4955
▁Luke	-4956
▁arch	-4957
▁bear	-4958
▁tack	-4959
▁Franc	-4960
▁envir	-4961
▁seven	-4962
▁study	-4963
▁Howard	-4964
▁connect	-4965
▁irritating	-4966
asp	-4967
▁tun	-4968
anged	-4969
usive	-4970
▁Carr	-4971
▁Cent	-4972
▁Cind	-4973
uitous	-4974
▁Santa	-4975
▁plots	-4976
▁unable	-4977
▁unconv	-4978
Don	-4979
▁lat	-4980
▁les	-4981
▁vul	-4982
▁redu	-4983
▁sheer	-4984
▁advert	-4985
▁sucked	-4986
▁window	-4987
▁creates	-4988
▁curious	-4989
▁discovers	-4990
▁screaming	-4991
▁connection	-4992
lly	-4993
▁Kenn	-4994
▁site	-4995
▁Stone	-4996
▁types	-4997
▁associ	-4998
▁powers	-4999
alloween	-5000
▁failure	-5001
▁delivered	-5002
▁references	-5003
▁revolution	-5004
enny	-5005
ores	-5006
▁Dor	-5007
▁Out	-5008
▁Rod	-5009
▁YOU	-5010
▁hur	-5011
▁net	-5012
▁obl	-5013
▁Long	-5014
▁Brown	-5015
▁gonna	-5016
ression	-5017
▁convey	-5018
▁leader	-5019
finitely	-5020
▁mission	-5021
▁research	-5022
entionally	-5023
▁spectacular	-5024
▁stereotypes	-5025
My	-5026
don	-5027
▁di	-5028
some	-5029
▁Kim	-5030
▁Beat	-5031
▁Much	-5032
▁goof	-5033
ication	-5034
theless	-5035
▁Anyone	-5036
▁edited	-5037
▁lesson	-5038
▁marvel	-5039
▁Sinatra	-5040
▁wedding	-5041
▁majority	-5042
▁technology	-5043
And	-5044
▁Wow	-5045
▁emer	-5046
▁reun	-5047
▁North	-5048
▁necess	-5049
▁morning	-5050
Be	-5051
ba	-5052
fit	-5053
lim	-5054
nox	-5055
▁SH	-5056
ugos	-5057
▁Ter	-5058
▁bot	-5059
icate	-5060
orthy	-5061
▁kiss	-5062
hentic	-5063
reedom	-5064
▁civil	-5065
▁miser	-5066
▁teach	-5067
▁caused	-5068
▁refres	-5069
▁relate	-5070
▁singer	-5071
▁subtit	-5072
▁brilliantly	-5073
ums	-5074
iforn	-5075
▁mini	-5076
▁obsc	-5077
▁shop	-5078
unning	-5079
▁Louis	-5080
▁grace	-5081
▁princ	-5082
▁colour	-5083
▁speech	-5084
▁families	-5085
▁laughter	-5086
▁emotionally	-5087
▁protagonist	-5088
▁IT	-5089
ques	-5090
stit	-5091
▁Whe	-5092
▁fal	-5093
iling	-5094
ville	-5095
▁fare	-5096
▁Cinem	-5097
▁Master	-5098
▁Tarzan	-5099
▁altern	-5100
▁recall	-5101
▁reflect	-5102
▁painfully	-5103
▁entertained	-5104
yr	-5105
law	-5106
▁Us	-5107
▁Hay	-5108
▁syn	-5109
▁Time	-5110
▁sole	-5111
▁tick	-5112
acting	-5113
▁crappy	-5114
▁Univers	-5115
▁treatment	-5116
LLY	-5117
dom	-5118
yal	-5119
aret	-5120
done	-5121
▁Sur	-5122
▁Tex	-5123
▁Full	-5124
▁Wars	-5125
▁corny	-5126
▁compan	-5127
▁frustr	-5128
▁attitude	-5129
▁ultimate	-5130
▁combination	-5131
chan	-5132
▁Dra	-5133
▁cyn	-5134
▁Mont	-5135
▁gory	-5136
▁send	-5137
▁trib	-5138
erella	-5139
mother	-5140
▁built	-5141
▁gross	-5142
▁Joseph	-5143
▁excited	-5144
▁Watching	-5145
De	-5146
RI	-5147
bell	-5148
▁ran	-5149
▁Trek	-5150
▁cash	-5151
▁inept	-5152
▁logic	-5153
▁skill	-5154
▁spoof	-5155
▁Parker	-5156
▁Academy	-5157
▁vehicle	-5158
▁challeng	-5159
▁executed	-5160
▁identity	-5161
▁amateurish	-5162
▁magnificent	-5163
RA	-5164
▁#	-5165
What	-5166
▁Jan	-5167
ether	-5168
▁Moore	-5169
▁Sadly	-5170
▁peace	-5171
▁veter	-5172
ifornia	-5173
ulation	-5174
▁parody	-5175
▁graphic	-5176
▁meeting	-5177
▁believes	-5178
▁decision	-5179
▁pleasant	-5180
▁gratuitous	-5181
ault	-5182
whel	-5183
ynam	-5184
▁Pre	-5185
aming	-5186
liver	-5187
▁Anne	-5188
▁Brad	-5189
▁appl	-5190
▁Anton	-5191
▁assume	-5192
▁establ	-5193
▁levels	-5194
▁portrays	-5195
▁described	-5196
Ar	-5197
cohol	-5198
▁lone	-5199
▁scar	-5200
stream	-5201
▁Miche	-5202
▁stopped	-5203
▁dreadful	-5204
▁reviewer	-5205
▁theaters	-5206
▁flashbacks	-5207
▁underrated	-5208
▁occasionally	-5209
urs	-5210
outs	-5211
stick	-5212
angers	-5213
▁Wayne	-5214
▁paper	-5215
▁screw	-5216
▁Gordon	-5217
▁Thomas	-5218
▁seasons	-5219
teresting	-5220
▁Jennifer	-5221
▁expression	-5222
▁refreshing	-5223
ls	-5224
omer	-5225
▁Are	-5226
▁Ell	-5227
▁Viet	-5228
▁bond	-5229
▁tape	-5230
▁cruel	-5231
▁excit	-5232
▁harsh	-5233
▁France	-5234
▁asking	-5235
▁blonde	-5236
▁learns	-5237
▁ruined	-5238
▁endless	-5239
▁produce	-5240
▁Anderson	-5241
▁Broadway	-5242
▁Victoria	-5243
▁handsome	-5244
▁involves	-5245
▁contrived	-5246
▁embarrassing	-5247
ama	-5248
ilty	-5249
▁Cle	-5250
ights	-5251
▁boat	-5252
taking	-5253
▁Brand	-5254
▁Marie	-5255
▁range	-5256
▁broken	-5257
▁inspir	-5258
▁capable	-5259
▁religion	-5260
▁Hitchcock	-5261
▁practically	-5262
phy	-5263
kend	-5264
▁ages	-5265
▁king	-5266
telling	-5267
▁appealing	-5268
▁essentially	-5269
▁sympathetic	-5270
GE	-5271
ja	-5272
mat	-5273
ser	-5274
▁TO	-5275
▁pal	-5276
▁Matt	-5277
▁fund	-5278
▁Grant	-5279
▁Woody	-5280
▁Jackie	-5281
▁choose	-5282
▁normally	-5283
ae	-5284
ugg	-5285
usi	-5286
omed	-5287
ooth	-5288
▁Haw	-5289
▁Mir	-5290
▁Mrs	-5291
▁Ros	-5292
ients	-5293
▁Mean	-5294
▁Wild	-5295
▁costs	-5296
▁stalk	-5297
▁sports	-5298
▁Through	-5299
▁authentic	-5300
50	-5301
cil	-5302
ker	-5303
nam	-5304
▁Up	-5305
core	-5306
urns	-5307
uted	-5308
▁Ash	-5309
▁Sky	-5310
▁wel	-5311
abeth	-5312
▁Plus	-5313
▁feet	-5314
▁spin	-5315
▁punch	-5316
aturday	-5317
▁murdere	-5318
▁streets	-5319
UN	-5320
").	-5321
IGH	-5322
inis	-5323
▁ALL	-5324
▁Dar	-5325
class	-5326
ichol	-5327
▁Moon	-5328
▁None	-5329
▁Later	-5330
▁cares	-5331
▁judge	-5332
▁Direct	-5333
▁substance	-5334
▁suffering	-5335
▁portraying	-5336
▁satisfying	-5337
▁circumstances	-5338
arc	-5339
▁Max	-5340
▁Nic	-5341
▁vac	-5342
isher	-5343
▁THAT	-5344
buster	-5345
▁Being	-5346
▁Prince	-5347
▁Germany	-5348
▁Without	-5349
▁largely	-5350
▁Canadian	-5351
▁monsters	-5352
▁standing	-5353
▁thoughts	-5354
▁appropriate	-5355
▁unrealistic	-5356
zo	-5357
nal	-5358
uns	-5359
gent	-5360
iser	-5361
udic	-5362
walk	-5363
▁myth	-5364
▁yeah	-5365
▁Asian	-5366
▁conce	-5367
▁proud	-5368
▁eating	-5369
▁whilst	-5370
▁routine	-5371
▁evidence	-5372
▁depressing	-5373
▁excitement	-5374
▁environment	-5375
ked	-5376
orb	-5377
▁NO	-5378
▁emp	-5379
amily	-5380
▁neat	-5381
▁zero	-5382
▁Clark	-5383
▁flesh	-5384
▁inner	-5385
▁voices	-5386
▁ancient	-5387
▁dressed	-5388
▁hearing	-5389
▁sequels	-5390
▁tedious	-5391
▁LA	-5392
erie	-5393
roll	-5394
orted	-5395
oting	-5396
▁Care	-5397
▁Pitt	-5398
▁Gener	-5399
▁purch	-5400
▁talks	-5401
▁chosen	-5402
▁village	-5403
▁Actually	-5404
▁captures	-5405
▁visually	-5406
▁whenever	-5407
▁convinced	-5408
▁theatrical	-5409
):	-5410
Sc	-5411
ada	-5412
ari	-5413
ule	-5414
▁da	-5415
▁Rem	-5416
▁fly	-5417
ethod	-5418
oster	-5419
▁Lewis	-5420
▁Powell	-5421
▁compos	-5422
▁Barbara	-5423
▁involve	-5424
▁matters	-5425
▁fictional	-5426
,'	-5427
▁UK	-5428
▁VER	-5429
▁cab	-5430
ilogy	-5431
▁Karl	-5432
▁fame	-5433
▁fits	-5434
▁seat	-5435
▁soph	-5436
▁Nancy	-5437
▁erotic	-5438
▁propag	-5439
▁rescue	-5440
▁warning	-5441
▁unfortun	-5442
pet	-5443
▁BE	-5444
▁vs	-5445
long	-5446
rate	-5447
▁Art	-5448
▁Dog	-5449
▁Tri	-5450
▁vague	-5451
▁walks	-5452
▁asleep	-5453
▁inevit	-5454
▁Francis	-5455
▁counter	-5456
▁exploitation	-5457
fl	-5458
tes	-5459
apes	-5460
made	-5461
oken	-5462
somet	-5463
▁Chan	-5464
▁crack	-5465
▁Africa	-5466
▁center	-5467
▁teenager	-5468
▁disgusting	-5469
nan	-5470
▁Ho	-5471
▁Tor	-5472
▁Anna	-5473
▁Comp	-5474
▁Ryan	-5475
▁cant	-5476
raction	-5477
▁alcohol	-5478
▁depicted	-5479
▁strongly	-5480
▁teenagers	-5481
▁La	-5482
olic	-5483
tain	-5484
anagh	-5485
▁forth	-5486
▁lousy	-5487
▁steals	-5488
▁extraord	-5489
▁criticism	-5490
GM	-5491
VE	-5492
ga	-5493
▁0	-5494
mind	-5495
orig	-5496
▁Bon	-5497
▁Dem	-5498
▁Get	-5499
▁San	-5500
▁bre	-5501
arian	-5502
imate	-5503
otion	-5504
produ	-5505
▁rend	-5506
▁10/10	-5507
▁About	-5508
▁anime	-5509
▁Murphy	-5510
▁assass	-5511
▁excess	-5512
▁qualities	-5513
▁Apparently	-5514
John	-5515
▁Tod	-5516
▁hol	-5517
▁rot	-5518
uther	-5519
▁Does	-5520
▁facts	-5521
▁glass	-5522
▁lower	-5523
rocious	-5524
▁bodies	-5525
▁dubbed	-5526
▁Russell	-5527
▁initial	-5528
▁generation	-5529
▁́	-5530
ENT	-5531
ume	-5532
▁Sn	-5533
irds	-5534
▁Mil	-5535
▁Sun	-5536
▁vol	-5537
▁Dian	-5538
▁clue	-5539
▁grade	-5540
▁refer	-5541
▁revel	-5542
▁rival	-5543
▁sharp	-5544
osexual	-5545
▁hyster	-5546
▁losing	-5547
▁saving	-5548
▁capital	-5549
▁believed	-5550
▁structure	-5551
▁unfortunate	-5552
▁)	-5553
ait	-5554
ani	-5555
▁Kh	-5556
ners	-5557
▁1980	-5558
▁vote	-5559
orting	-5560
▁Barry	-5561
▁false	-5562
▁rental	-5563
▁touches	-5564
▁category	-5565
▁horribly	-5566
▁obsessed	-5567
▁unlikely	-5568
chy	-5569
chen	-5570
pent	-5571
▁Bor	-5572
etime	-5573
▁1950	-5574
▁Bern	-5575
▁Hope	-5576
▁emph	-5577
▁heav	-5578
▁pile	-5579
▁ludic	-5580
▁pregn	-5581
▁angles	-5582
▁consequ	-5583
▁costume	-5584
▁promise	-5585
▁descript	-5586
▁spoilers	-5587
▁offensive	-5588
▁virtually	-5589
▁controvers	-5590
▁relatively	-5591
▁contemporary	-5592
II	-5593
cr	-5594
ulp	-5595
elle	-5596
▁Wat	-5597
▁gig	-5598
▁Cons	-5599
▁ruin	-5600
tended	-5601
▁chose	-5602
▁expos	-5603
▁prior	-5604
▁spell	-5605
▁During	-5606
▁claims	-5607
▁heaven	-5608
▁lawyer	-5609
▁makeup	-5610
▁serves	-5611
▁sitcom	-5612
▁Patrick	-5613
▁accents	-5614
▁handled	-5615
▁baseball	-5616
▁football	-5617
ez	-5618
itiz	-5619
▁Det	-5620
▁Far	-5621
▁Pri	-5622
▁Ted	-5623
achel	-5624
▁Gill	-5625
▁acqu	-5626
▁cann	-5627
▁drop	-5628
▁plans	-5629
▁reput	-5630
▁latest	-5631
▁reject	-5632
▁speaks	-5633
▁viewed	-5634
▁holding	-5635
▁suffers	-5636
▁bringing	-5637
▁Basically	-5638
▁wid	-5639
▁vide	-5640
▁Texas	-5641
▁polic	-5642
▁unfor	-5643
ogether	-5644
▁Nichol	-5645
▁source	-5646
▁Besides	-5647
▁Captain	-5648
▁hanging	-5649
▁multiple	-5650
▁atrocious	-5651
▁influence	-5652
▁experiences	-5653
beat	-5654
ella	-5655
ivan	-5656
▁Hill	-5657
▁Page	-5658
▁Wend	-5659
▁pity	-5660
▁semi	-5661
▁lucky	-5662
▁pursu	-5663
▁trick	-5664
▁truck	-5665
written	-5666
▁deaths	-5667
▁enthusi	-5668
▁evening	-5669
▁reminis	-5670
▁shocked	-5671
▁presents	-5672
▁provided	-5673
▁training	-5674
▁Sometimes	-5675
▁promising	-5676
yes	-5677
▁3.	-5678
▁Ob	-5679
▁Cas	-5680
▁Sab	-5681
anity	-5682
athan	-5683
▁Camp	-5684
▁harm	-5685
inging	-5686
▁Irish	-5687
▁Pacino	-5688
▁arrest	-5689
▁factor	-5690
▁Festival	-5691
▁particip	-5692
▁realizes	-5693
▁reporter	-5694
▁execution	-5695
▁Australian	-5696
▁forgettable	-5697
och	-5698
▁NE	-5699
aura	-5700
▁sne	-5701
eness	-5702
▁batt	-5703
▁quir	-5704
▁rise	-5705
▁Grand	-5706
▁bound	-5707
▁brave	-5708
▁Island	-5709
▁States	-5710
▁Wilson	-5711
▁degree	-5712
▁Brothers	-5713
▁classics	-5714
▁convince	-5715
▁politics	-5716
▁surprises	-5717
▁intellectual	-5718
▁uninteresting	-5719
ij	-5720
sm	-5721
nce	-5722
▁Sk	-5723
ummy	-5724
▁MOV	-5725
▁Mod	-5726
rehen	-5727
▁Hoff	-5728
▁ende	-5729
▁Caine	-5730
viously	-5731
▁Walter	-5732
▁covered	-5733
▁mistakes	-5734
▁movement	-5735
ION	-5736
iat	-5737
ship	-5738
▁Cru	-5739
▁bag	-5740
▁hey	-5741
▁sho	-5742
ioned	-5743
ugosi	-5744
▁1970	-5745
▁link	-5746
▁graph	-5747
▁weeks	-5748
ausible	-5749
▁closer	-5750
▁cartoons	-5751
▁complain	-5752
▁Halloween	-5753
▁nominated	-5754
****	-5755
▁Fer	-5756
▁MGM	-5757
▁nin	-5758
amous	-5759
loved	-5760
▁Vinc	-5761
▁mask	-5762
▁skip	-5763
ighter	-5764
▁bitter	-5765
▁exagger	-5766
▁focused	-5767
▁frankly	-5768
▁freedom	-5769
▁lesbian	-5770
▁Meanwhile	-5771
▁continuity	-5772
"),	-5773
ante	-5774
olph	-5775
umph	-5776
▁arg	-5777
ennis	-5778
▁Kill	-5779
▁Pict	-5780
formed	-5781
inated	-5782
▁idiot	-5783
ullivan	-5784
▁Edward	-5785
▁Wonder	-5786
▁invent	-5787
including	-5788
▁festival	-5789
▁overlook	-5790
▁previously	-5791
▁propaganda	-5792
ixt	-5793
cker	-5794
▁Ast	-5795
▁cas	-5796
▁Drew	-5797
▁Take	-5798
ulated	-5799
▁Dream	-5800
▁crude	-5801
▁kinds	-5802
▁poign	-5803
▁admire	-5804
▁commit	-5805
▁crimin	-5806
▁emphas	-5807
▁walked	-5808
▁killers	-5809
▁section	-5810
▁combined	-5811
▁overwhel	-5812
▁distribut	-5813
▁recognize	-5814
▁supernatural	-5815
!),	-5816
---	-5817
anny	-5818
icit	-5819
udes	-5820
▁eld	-5821
▁gas	-5822
▁stol	-5823
▁dirty	-5824
lection	-5825
▁contest	-5826
▁offered	-5827
▁committed	-5828
▁occasional	-5829
▁struggling	-5830
▁frightening	-5831
IR	-5832
wy	-5833
ye	-5834
acle	-5835
atal	-5836
iens	-5837
▁Cap	-5838
▁Off	-5839
▁Rec	-5840
▁lie	-5841
▁Comm	-5842
▁Kore	-5843
▁sink	-5844
▁term	-5845
▁Roger	-5846
▁sorts	-5847
▁table	-5848
umbling	-5849
▁Hoffman	-5850
▁concent	-5851
▁surface	-5852
▁creatures	-5853
▁narration	-5854
▁Cinderella	-5855
▁accidentally	-5856
ida	-5857
uls	-5858
▁Cur	-5859
▁Hon	-5860
▁Mer	-5861
▁Sal	-5862
▁Sat	-5863
▁Bros	-5864
▁Fair	-5865
▁Hong	-5866
▁blow	-5867
▁cris	-5868
▁nude	-5869
▁sche	-5870
▁anger	-5871
▁fairy	-5872
▁river	-5873
▁rough	-5874
▁rules	-5875
▁Oliver	-5876
▁United	-5877
▁landsc	-5878
▁improve	-5879
▁outrage	-5880
▁private	-5881
▁mainstream	-5882
▁experienced	-5883
eds	-5884
▁Ha	-5885
ader	-5886
ashy	-5887
▁Old	-5888
icted	-5889
▁Beaut	-5890
▁Count	-5891
▁Roman	-5892
▁dynam	-5893
▁guard	-5894
▁ideal	-5895
▁spite	-5896
▁colors	-5897
▁health	-5898
▁spends	-5899
▁dollars	-5900
▁haunting	-5901
▁remotely	-5902
▁reputation	-5903
shi	-5904
▁CH	-5905
▁Back	-5906
▁Evil	-5907
▁Wall	-5908
▁stom	-5909
▁wear	-5910
▁Queen	-5911
▁abuse	-5912
▁price	-5913
▁Unlike	-5914
▁psycho	-5915
▁cutting	-5916
▁massive	-5917
▁directly	-5918
▁featured	-5919
▁position	-5920
hi	-5921
Rob	-5922
gie	-5923
noon	-5924
onel	-5925
▁Inc	-5926
▁flo	-5927
ungle	-5928
▁Baby	-5929
▁VERY	-5930
▁captiv	-5931
▁castle	-5932
▁figures	-5933
▁trilogy	-5934
▁Saturday	-5935
▁demonstr	-5936
▁downright	-5937
▁everywhere	-5938
ya	-5939
add	-5940
ola	-5941
ona	-5942
▁BBC	-5943
▁Eliz	-5944
▁Fran	-5945
▁jail	-5946
▁shut	-5947
▁till	-5948
apping	-5949
▁Lugosi	-5950
▁accomp	-5951
▁method	-5952
▁suffer	-5953
atically	-5954
▁Columbo	-5955
▁figured	-5956
▁bothered	-5957
▁designed	-5958
▁werewolf	-5959
▁melodrama	-5960
▁statement	-5961
▁worthwhile	-5962
▁effectively	-5963
IA	-5964
UR	-5965
bid	-5966
ston	-5967
wing	-5968
▁Plan	-5969
arning	-5970
▁paced	-5971
▁gentle	-5972
▁imagery	-5973
▁prostit	-5974
▁required	-5975
▁favorites	-5976
▁performed	-5977
Fi	-5978
If	-5979
gen	-5980
mal	-5981
▁25	-5982
kins	-5983
laim	-5984
mate	-5985
iform	-5986
stalg	-5987
▁Flor	-5988
▁swim	-5989
▁Enter	-5990
▁liber	-5991
▁pulls	-5992
▁scale	-5993
▁teens	-5994
▁Bourne	-5995
▁Movies	-5996
▁Freeman	-5997
▁Johnson	-5998
▁nostalg	-5999
▁explains	-6000
▁sensitive	-6001
▁subtitles	-6002
▁Definitely	-6003
▁suspenseful	-6004
▁unconvincing	-6005
dim	-6006
ems	-6007
▁16	-6008
▁fu	-6009
airs	-6010
race	-6011
▁Dun	-6012
▁Eve	-6013
▁fix	-6014
▁unp	-6015
▁snow	-6016
belief	-6017
▁hired	-6018
▁upset	-6019
▁Donald	-6020
▁Sunday	-6021
▁crying	-6022
▁stayed	-6023
▁Branagh	-6024
▁tremend	-6025
▁incident	-6026
▁sympathy	-6027
▁Otherwise	-6028
▁Especially	-6029
ura	-6030
girl	-6031
rant	-6032
stone	-6033
▁Bett	-6034
▁Each	-6035
▁Your	-6036
▁Devil	-6037
▁camer	-6038
▁encou	-6039
▁guest	-6040
▁loyal	-6041
▁extras	-6042
▁stolen	-6043
▁courage	-6044
▁reveals	-6045
▁contract	-6046
▁dinosaur	-6047
▁encounter	-6048
▁California	-6049
rol	-6050
▁SE	-6051
mond	-6052
▁192	-6053
▁MST	-6054
▁ded	-6055
▁Come	-6056
▁bore	-6057
▁core	-6058
▁task	-6059
▁Music	-6060
▁Three	-6061
▁simpl	-6062
▁spark	-6063
▁stays	-6064
▁amazed	-6065
▁awards	-6066
▁buying	-6067
▁scares	-6068
▁Vietnam	-6069
▁focuses	-6070
▁twisted	-6071
▁faithful	-6072
aa	-6073
ease	-6074
▁dom	-6075
stery	-6076
▁Curt	-6077
▁jeal	-6078
▁surf	-6079
▁thro	-6080
▁guilty	-6081
▁status	-6082
▁passing	-6083
▁scenario	-6084
▁according	-6085
▁legendary	-6086
▁significant	-6087
▁breathtaking	-6088
BI	-6089
ns	-6090
ift	-6091
oln	-6092
▁Gi	-6093
weet	-6094
▁Ret	-6095
▁ice	-6096
▁Gand	-6097
▁Yeah	-6098
▁cook	-6099
▁cust	-6100
▁diss	-6101
▁jobs	-6102
▁page	-6103
assion	-6104
▁Sarah	-6105
▁minds	-6106
▁toler	-6107
▁views	-6108
▁worry	-6109
▁Person	-6110
▁device	-6111
▁format	-6112
▁gritty	-6113
▁haunted	-6114
▁heavily	-6115
▁trapped	-6116
▁variety	-6117
▁abandoned	-6118
▁necessarily	-6119
▁conversation	-6120
bit	-6121
▁Bu	-6122
reek	-6123
▁Jay	-6124
arant	-6125
mates	-6126
plays	-6127
plend	-6128
world	-6129
▁dozen	-6130
▁wound	-6131
▁Sidney	-6132
▁intens	-6133
▁strict	-6134
▁clichéd	-6135
▁contact	-6136
▁magical	-6137
equ	-6138
hem	-6139
▁ANY	-6140
▁scr	-6141
▁(199	-6142
▁Mill	-6143
▁flow	-6144
▁teeth	-6145
▁Rachel	-6146
▁paying	-6147
▁command	-6148
▁decades	-6149
▁service	-6150
▁stomach	-6151
▁delivery	-6152
▁distinct	-6153
▁vampires	-6154
▁destroyed	-6155
arg	-6156
▁Po	-6157
aust	-6158
iano	-6159
onda	-6160
▁Min	-6161
▁gre	-6162
ronic	-6163
▁Emma	-6164
▁Sher	-6165
▁evol	-6166
▁fond	-6167
▁heck	-6168
itious	-6169
▁Carol	-6170
▁Child	-6171
▁ignor	-6172
▁inhab	-6173
▁integr	-6174
▁besides	-6175
▁confess	-6176
▁evident	-6177
▁veteran	-6178
▁weekend	-6179
▁ludicrous	-6180
▁complicated	-6181
OP	-6182
Sp	-6183
low	-6184
amor	-6185
rees	-6186
▁Bog	-6187
▁bab	-6188
arden	-6189
enced	-6190
▁wand	-6191
ramatic	-6192
▁deeper	-6193
▁theory	-6194
▁sounded	-6195
▁changing	-6196
▁pregnant	-6197
▁security	-6198
▁understood	-6199
Le	-6200
There	-6201
craft	-6202
▁Have	-6203
called	-6204
incoln	-6205
outhern	-6206
ressive	-6207
▁Mexico	-6208
▁facial	-6209
▁placed	-6210
▁praise	-6211
▁anticip	-6212
▁closing	-6213
▁uniform	-6214
▁murderer	-6215
▁settings	-6216
▁appreciated	-6217
?).	-6218
How	-6219
case	-6220
iger	-6221
▁Cub	-6222
▁lift	-6223
▁unbe	-6224
▁Charl	-6225
▁Warner	-6226
▁cheese	-6227
▁driven	-6228
▁winner	-6229
▁Someone	-6230
▁answers	-6231
▁gruesome	-6232
▁profound	-6233
▁contribut	-6234
▁depiction	-6235
agal	-6236
fall	-6237
ught	-6238
▁ash	-6239
▁fet	-6240
▁fil	-6241
▁nut	-6242
▁pan	-6243
ipped	-6244
lover	-6245
▁blat	-6246
▁libr	-6247
entist	-6248
▁Alice	-6249
▁India	-6250
▁metap	-6251
▁obnox	-6252
▁access	-6253
▁advant	-6254
▁extent	-6255
▁greater	-6256
▁renting	-6257
something	-6258
▁disbelief	-6259
▁listening	-6260
▁naturally	-6261
▁slapstick	-6262
▁17	-6263
IGHT	-6264
ethe	-6265
than	-6266
▁Cha	-6267
after	-6268
asant	-6269
erved	-6270
▁(200	-6271
▁Soon	-6272
▁blah	-6273
▁tear	-6274
▁Killer	-6275
▁mature	-6276
atherine	-6277
▁Mexican	-6278
▁funnier	-6279
▁journal	-6280
▁welcome	-6281
▁description	-6282
BO	-6283
hib	-6284
oyd	-6285
fess	-6286
▁Cat	-6287
▁Amaz	-6288
▁Dean	-6289
▁Larry	-6290
▁Under	-6291
▁disag	-6292
▁picks	-6293
▁prime	-6294
▁native	-6295
▁treasure	-6296
▁desperately	-6297
▁storytelling	-6298
▁stereotypical	-6299
des	-6300
▁4.	-6301
iner	-6302
▁McG	-6303
▁(198	-6304
▁mere	-6305
▁seve	-6306
▁tong	-6307
▁MOVIE	-6308
▁Susan	-6309
▁basis	-6310
▁buddy	-6311
▁chief	-6312
▁sides	-6313
▁Acting	-6314
▁Philip	-6315
▁Zombie	-6316
▁novels	-6317
ographer	-6318
▁choices	-6319
▁helping	-6320
▁miscast	-6321
▁touched	-6322
▁examples	-6323
CT	-6324
ean	-6325
imm	-6326
▁Our	-6327
▁Roc	-6328
▁enh	-6329
▁ton	-6330
adays	-6331
igned	-6332
▁Lost	-6333
▁Marg	-6334
▁cand	-6335
▁hack	-6336
▁irre	-6337
▁Produ	-6338
▁incor	-6339
▁Brooks	-6340
▁handle	-6341
▁Lincoln	-6342
▁comical	-6343
▁preview	-6344
ibilities	-6345
▁originality	-6346
1.	-6347
EL	-6348
zel	-6349
▁HA	-6350
▁SO	-6351
▁Dep	-6352
▁Mic	-6353
▁sea	-6354
ifies	-6355
▁Army	-6356
▁isol	-6357
▁seek	-6358
▁wins	-6359
coming	-6360
▁campy	-6361
▁chuck	-6362
▁divor	-6363
oration	-6364
▁causes	-6365
▁forest	-6366
▁lights	-6367
▁lonely	-6368
▁Charact	-6369
▁sisters	-6370
▁starred	-6371
▁properly	-6372
▁succeeds	-6373
▁President	-6374
▁extraordinary	-6375
oms	-6376
▁nu	-6377
aver	-6378
▁Ire	-6379
▁LOV	-6380
▁Ned	-6381
▁vir	-6382
aying	-6383
▁Cole	-6384
▁kung	-6385
▁blown	-6386
▁repet	-6387
▁serve	-6388
▁vivid	-6389
▁wrest	-6390
ception	-6391
▁Things	-6392
▁consum	-6393
▁racist	-6394
▁throws	-6395
▁warned	-6396
▁artists	-6397
▁deliber	-6398
▁critical	-6399
▁prepared	-6400
▁afternoon	-6401
▁reminiscent	-6402
▁international	-6403
KE	-6404
uty	-6405
ucky	-6406
wyck	-6407
▁Atl	-6408
▁Lat	-6409
▁Wid	-6410
▁cous	-6411
▁China	-6412
▁Hardy	-6413
▁Julia	-6414
iveness	-6415
▁Cooper	-6416
▁mildly	-6417
▁raised	-6418
▁reward	-6419
........	-6420
etheless	-6421
▁beloved	-6422
▁sheriff	-6423
▁musicals	-6424
▁criminals	-6425
▁screening	-6426
dimensional	-6427
▁department	-6428
"?	-6429
But	-6430
▁Ty	-6431
list	-6432
ooge	-6433
▁8/10	-6434
▁Stud	-6435
▁Turn	-6436
▁tiny	-6437
▁vast	-6438
▁yell	-6439
lected	-6440
rehens	-6441
▁Matth	-6442
▁femin	-6443
▁shape	-6444
tending	-6445
▁Friday	-6446
▁caring	-6447
▁carried	-6448
▁carries	-6449
▁summary	-6450
▁universe	-6451
▁sophistic	-6452
▁inspiration	-6453
▁introduction	-6454
She	-6455
▁Ap	-6456
▁Pa	-6457
▁Bac	-6458
▁Die	-6459
▁Son	-6460
▁ain	-6461
▁bow	-6462
▁mas	-6463
▁rub	-6464
▁argu	-6465
▁boot	-6466
▁crash	-6467
▁Miller	-6468
▁Virgin	-6469
▁demand	-6470
▁nation	-6471
breaking	-6472
▁Sandler	-6473
▁escapes	-6474
▁subsequ	-6475
▁cultural	-6476
▁interact	-6477
▁Elizabeth	-6478
▁condition	-6479
▁essential	-6480
▁homosexual	-6481
ela	-6482
fun	-6483
ids	-6484
zil	-6485
▁5.	-6486
▁AL	-6487
▁Da	-6488
▁Alt	-6489
▁Bak	-6490
▁MAN	-6491
▁hip	-6492
▁ske	-6493
eston	-6494
osity	-6495
▁Lisa	-6496
▁True	-6497
▁join	-6498
▁rule	-6499
except	-6500
▁Julie	-6501
▁Phill	-6502
▁Power	-6503
▁enter	-6504
▁jumps	-6505
▁quirky	-6506
▁shadow	-6507
▁splend	-6508
ustrated	-6509
▁contain	-6510
▁weapons	-6511
▁drinking	-6512
▁enjoying	-6513
▁Seriously	-6514
▁challenge	-6515
▁happiness	-6516
OOD	-6517
iko	-6518
ils	-6519
aste	-6520
ianc	-6521
kind	-6522
▁Dal	-6523
▁Lem	-6524
▁Sir	-6525
▁USA	-6526
▁arr	-6527
▁sky	-6528
ilton	-6529
ouses	-6530
▁Ball	-6531
▁Lore	-6532
▁Nazi	-6533
▁rank	-6534
penter	-6535
semble	-6536
▁Maria	-6537
▁autom	-6538
▁steps	-6539
▁wears	-6540
SPOILER	-6541
atholic	-6542
▁Knight	-6543
▁Rogers	-6544
▁purely	-6545
▁arrives	-6546
▁halfway	-6547
▁install	-6548
▁related	-6549
utherland	-6550
▁graphics	-6551
▁mountain	-6552
▁replaced	-6553
▁sinister	-6554
▁embarrassed	-6555
▁presentation	-6556
▁interpretation	-6557
IM	-6558
ico	-6559
▁dub	-6560
▁nom	-6561
order	-6562
▁Reed	-6563
ancing	-6564
▁suffe	-6565
ounding	-6566
▁corpor	-6567
▁exists	-6568
▁ignore	-6569
onscious	-6570
▁concert	-6571
▁univers	-6572
▁attacked	-6573
▁breaking	-6574
▁carrying	-6575
▁friendly	-6576
▁psychiat	-6577
▁successfully	-6578
ieu	-6579
may	-6580
alph	-6581
char	-6582
▁Arn	-6583
▁(197	-6584
▁Next	-6585
▁adop	-6586
▁lazy	-6587
▁torn	-6588
▁Sorry	-6589
▁cases	-6590
▁enemy	-6591
▁indie	-6592
▁border	-6593
▁portra	-6594
▁resist	-6595
▁rights	-6596
▁sleazy	-6597
▁virgin	-6598
▁Channel	-6599
▁Stanley	-6600
▁stylish	-6601
▁SPOILERS	-6602
▁everyday	-6603
▁mentally	-6604
▁throwing	-6605
▁confusion	-6606
▁daughters	-6607
▁obnoxious	-6608
▁reference	-6609
▁attempting	-6610
▁determined	-6611
vo	-6612
ago	-6613
end	-6614
▁:)	-6615
beit	-6616
▁Gab	-6617
▁Raj	-6618
▁Wes	-6619
▁via	-6620
style	-6621
umber	-6622
▁Such	-6623
▁Vamp	-6624
▁risk	-6625
▁Tracy	-6626
▁chair	-6627
▁raise	-6628
ielberg	-6629
▁charge	-6630
▁deadly	-6631
▁timing	-6632
▁guarant	-6633
▁ratings	-6634
▁Stanwyck	-6635
▁adventures	-6636
▁productions	-6637
hay	-6638
▁cy	-6639
▁ul	-6640
aped	-6641
roph	-6642
▁Cus	-6643
▁Hal	-6644
▁Rick	-6645
▁Shar	-6646
▁Swed	-6647
▁anal	-6648
▁pool	-6649
spired	-6650
▁Along	-6651
▁clips	-6652
▁goofy	-6653
▁magaz	-6654
▁Bettie	-6655
▁Holmes	-6656
▁calling	-6657
▁spoiler	-6658
▁horrific	-6659
▁intensity	-6660
US	-6661
..."	-6662
▁bon	-6663
actic	-6664
erior	-6665
▁Beck	-6666
▁arms	-6667
▁decl	-6668
▁dign	-6669
▁dogs	-6670
▁grim	-6671
▁pupp	-6672
▁Grade	-6673
▁Techn	-6674
▁topic	-6675
▁ashamed	-6676
▁balance	-6677
▁immense	-6678
▁accompan	-6679
▁neighborhood	-6680
/1	-6681
▁7.	-6682
▁BL	-6683
fits	-6684
ibal	-6685
plin	-6686
rial	-6687
▁Reg	-6688
going	-6689
▁bill	-6690
▁laid	-6691
▁coinc	-6692
▁disgu	-6693
▁relax	-6694
▁stops	-6695
anchise	-6696
▁Claire	-6697
▁Dennis	-6698
▁driver	-6699
▁titles	-6700
▁wishes	-6701
▁princip	-6702
▁refuses	-6703
ification	-6704
▁Sullivan	-6705
▁revolves	-6706
▁Obviously	-6707
▁Something	-6708
▁atmospher	-6709
▁nightmare	-6710
Oh	-6711
aze	-6712
ety	-6713
ira	-6714
sec	-6715
lynn	-6716
rael	-6717
umbs	-6718
▁ped	-6719
!!!!!	-6720
isand	-6721
lance	-6722
▁cheer	-6723
▁grave	-6724
▁Brando	-6725
▁Jewish	-6726
▁served	-6727
▁Jessica	-6728
▁dislike	-6729
▁Probably	-6730
▁fabulous	-6731
▁overcome	-6732
▁advantage	-6733
▁regarding	-6734
▁struggles	-6735
▁frequently	-6736
▁established	-6737
▁expressions	-6738
▁sentimental	-6739
CK	-6740
ée	-6741
ila	-6742
mod	-6743
▁Ah	-6744
▁NY	-6745
▁ho	-6746
eral	-6747
▁Nel	-6748
▁Rep	-6749
▁slo	-6750
iques	-6751
verse	-6752
▁Burt	-6753
▁Kurt	-6754
▁lust	-6755
iamond	-6756
ogical	-6757
▁Award	-6758
▁cance	-6759
▁stunt	-6760
▁attend	-6761
▁horrend	-6762
▁mansion	-6763
▁plastic	-6764
▁Michelle	-6765
▁learning	-6766
▁poignant	-6767
▁retarded	-6768
▁terrifying	-6769
▁imaginative	-6770
▁PL	-6771
vira	-6772
▁Guy	-6773
▁Sol	-6774
vably	-6775
▁Greg	-6776
▁Kare	-6777
▁inco	-6778
▁neck	-6779
▁phen	-6780
▁trap	-6781
iments	-6782
▁elder	-6783
▁tense	-6784
cellent	-6785
▁Leslie	-6786
▁locked	-6787
gettable	-6788
▁Matthau	-6789
▁Vincent	-6790
▁cynical	-6791
▁credible	-6792
▁sleeping	-6793
▁stupidity	-6794
▁thrilling	-6795
▁Sutherland	-6796
▁interviews	-6797
▁credibility	-6798
▁personalities	-6799
1,	-6800
ONE	-6801
▁Ra	-6802
erek	-6803
▁FBI	-6804
▁Nol	-6805
iable	-6806
story	-6807
ulate	-6808
▁dece	-6809
▁dude	-6810
▁mock	-6811
▁puzz	-6812
ration	-6813
▁Brend	-6814
▁Ralph	-6815
▁angle	-6816
▁arrog	-6817
▁tongue	-6818
▁prevent	-6819
▁Spielberg	-6820
▁amazingly	-6821
▁obsession	-6822
3,	-6823
die	-6824
jud	-6825
lee	-6826
ulk	-6827
▁DE	-6828
▁Di	-6829
amie	-6830
iled	-6831
▁90'	-6832
▁Acc	-6833
▁Sav	-6834
adget	-6835
impse	-6836
inate	-6837
place	-6838
utter	-6839
▁Oliv	-6840
▁fulf	-6841
▁legs	-6842
mitted	-6843
▁Camer	-6844
▁broke	-6845
▁innov	-6846
▁shark	-6847
▁tempt	-6848
forward	-6849
▁Matrix	-6850
▁Police	-6851
▁betray	-6852
▁drives	-6853
▁spoken	-6854
▁weight	-6855
▁Widmark	-6856
▁attacks	-6857
▁glimpse	-6858
▁greatly	-6859
▁rolling	-6860
mentioned	-6861
▁comedian	-6862
▁guessing	-6863
▁suffered	-6864
▁Rochester	-6865
▁countries	-6866
▁technique	-6867
▁uncomfortable	-6868
can	-6869
ugh	-6870
berl	-6871
phan	-6872
sett	-6873
worth	-6874
▁Drag	-6875
▁Lion	-6876
▁Rand	-6877
▁sket	-6878
liners	-6879
▁Baker	-6880
▁Check	-6881
▁traum	-6882
▁trite	-6883
▁Living	-6884
▁flawed	-6885
▁lesser	-6886
▁Britain	-6887
▁amongst	-6888
▁minimal	-6889
▁patient	-6890
▁wasting	-6891
▁ensemble	-6892
▁mindless	-6893
▁ourselves	-6894
Ste	-6895
TER	-6896
rab	-6897
rig	-6898
▁LI	-6899
fest	-6900
fire	-6901
inge	-6902
▁Run	-6903
▁eth	-6904
▁butt	-6905
▁tree	-6906
ipping	-6907
▁Italy	-6908
▁Think	-6909
▁invis	-6910
▁Seagal	-6911
▁ironic	-6912
▁Andrews	-6913
▁alright	-6914
▁manager	-6915
▁medical	-6916
▁notable	-6917
▁wealthy	-6918
▁weakness	-6919
▁Streisand	-6920
▁enjoyment	-6921
▁marvelous	-6922
LD	-6923
aki	-6924
llo	-6925
sch	-6926
zed	-6927
▁'7	-6928
▁Hy	-6929
ooky	-6930
▁Aud	-6931
▁Fay	-6932
▁raw	-6933
▁unh	-6934
estly	-6935
prise	-6936
▁Geor	-6937
▁Give	-6938
▁Home	-6939
▁Ghost	-6940
▁irony	-6941
▁Burton	-6942
▁Israel	-6943
▁adding	-6944
▁announ	-6945
▁fallen	-6946
▁ghosts	-6947
▁shines	-6948
▁shorts	-6949
▁conspir	-6950
▁triumph	-6951
▁separate	-6952
▁connected	-6953
▁physically	-6954
▁controversial	-6955
9.	-6956
bra	-6957
tle	-6958
inci	-6959
pris	-6960
▁Ken	-6961
orses	-6962
▁Land	-6963
▁exer	-6964
▁gain	-6965
▁Blair	-6966
▁Flynn	-6967
▁Ultim	-6968
▁Would	-6969
▁admir	-6970
▁aston	-6971
▁choos	-6972
▁enorm	-6973
▁equal	-6974
▁trial	-6975
▁opened	-6976
▁parall	-6977
▁unfold	-6978
▁Chaplin	-6979
▁Whatever	-6980
▁chilling	-6981
▁gripping	-6982
▁nowadays	-6983
▁suggests	-6984
▁Carpenter	-6985
▁franchise	-6986
▁initially	-6987
▁innocence	-6988
▁spiritual	-6989
▁perfection	-6990
▁exceptional	-6991
▁protagonists	-6992
3.	-6993
ams	-6994
arm	-6995
iffe	-6996
utch	-6997
▁BAD	-6998
▁Daw	-6999
▁Ree	-7000
▁inj	-7001
attan	-7002
▁Lucy	-7003
▁Poor	-7004
▁WWII	-7005
▁tune	-7006
▁caric	-7007
▁miles	-7008
▁noted	-7009
▁oblig	-7010
▁occup	-7011
▁queen	-7012
▁robot	-7013
▁Church	-7014
▁Intern	-7015
▁REALLY	-7016
▁elabor	-7017
▁mechan	-7018
▁unbear	-7019
▁weapon	-7020
▁lessons	-7021
▁scripts	-7022
▁consists	-7023
▁develops	-7024
▁Universal	-7025
▁thousands	-7026
▁atmospheric	-7027
?),	-7028
obb	-7029
ocr	-7030
▁EN	-7031
hard	-7032
hold	-7033
inda	-7034
wife	-7035
writ	-7036
▁Dad	-7037
▁Fle	-7038
▁Veg	-7039
▁WOR	-7040
▁spy	-7041
vised	-7042
▁Boll	-7043
▁Scar	-7044
▁budd	-7045
▁tied	-7046
Christ	-7047
ements	-7048
▁Candy	-7049
▁sings	-7050
▁spots	-7051
▁stumb	-7052
▁Nelson	-7053
▁Oscars	-7054
▁gather	-7055
▁General	-7056
▁annoyed	-7057
▁dubbing	-7058
▁sympath	-7059
▁Consider	-7060
▁hundreds	-7061
▁Bollywood	-7062
▁sexuality	-7063
▁meaningful	-7064
ket	-7065
▁Ow	-7066
inch	-7067
▁Lum	-7068
▁tow	-7069
annon	-7070
conom	-7071
watch	-7072
▁7/10	-7073
▁Iran	-7074
▁firm	-7075
▁meat	-7076
▁myst	-7077
▁nose	-7078
▁remo	-7079
▁hoped	-7080
▁widow	-7081
▁aliens	-7082
▁cameos	-7083
▁mirror	-7084
▁neighb	-7085
▁presum	-7086
▁racism	-7087
▁states	-7088
▁Roberts	-7089
▁belongs	-7090
▁lovable	-7091
▁accepted	-7092
▁darkness	-7093
▁assistant	-7094
▁performers	-7095
BS	-7096
Pl	-7097
Re	-7098
All	-7099
Man	-7100
awa	-7101
from	-7102
onne	-7103
opath	-7104
retty	-7105
▁Cont	-7106
▁Port	-7107
▁cock	-7108
▁fest	-7109
idents	-7110
▁Class	-7111
▁Griff	-7112
▁Helen	-7113
▁Lucas	-7114
▁aired	-7115
▁ambig	-7116
▁backd	-7117
▁guilt	-7118
▁thick	-7119
▁Heaven	-7120
▁Highly	-7121
▁Rating	-7122
▁larger	-7123
original	-7124
▁specific	-7125
▁screenwriter	-7126
ti	-7127
ito	-7128
unn	-7129
acre	-7130
oops	-7131
▁Gen	-7132
▁Imp	-7133
▁cha	-7134
udson	-7135
▁4/10	-7136
▁Goth	-7137
▁eleg	-7138
▁reli	-7139
▁Bette	-7140
▁Derek	-7141
▁activ	-7142
▁finan	-7143
▁lying	-7144
▁metal	-7145
▁storm	-7146
emption	-7147
ologist	-7148
▁Foster	-7149
▁hiding	-7150
▁surviv	-7151
▁turkey	-7152
▁letting	-7153
▁splendid	-7154
▁Personally	-7155
2.	-7156
UL	-7157
aky	-7158
his	-7159
elve	-7160
ocal	-7161
seud	-7162
▁60'	-7163
▁Cel	-7164
▁Cow	-7165
▁3/10	-7166
ifying	-7167
rified	-7168
▁Krist	-7169
▁adequ	-7170
▁beach	-7171
▁proof	-7172
▁Arnold	-7173
▁Friend	-7174
▁Glover	-7175
▁afford	-7176
▁incons	-7177
▁perpet	-7178
▁smooth	-7179
▁idiotic	-7180
▁pointed	-7181
▁concerns	-7182
▁segments	-7183
▁superfic	-7184
▁endearing	-7185
▁intention	-7186
Cl	-7187
rad	-7188
avor	-7189
eter	-7190
hest	-7191
loyd	-7192
eremy	-7193
▁Buck	-7194
▁Need	-7195
▁unre	-7196
comedy	-7197
▁Point	-7198
▁sends	-7199
▁solve	-7200
▁toile	-7201
▁ultra	-7202
▁upper	-7203
▁wanna	-7204
▁wreck	-7205
▁Curtis	-7206
▁Indeed	-7207
▁Walken	-7208
▁hooked	-7209
▁horses	-7210
ographic	-7211
▁battles	-7212
▁dialogs	-7213
▁seeking	-7214
▁achieved	-7215
▁disagree	-7216
▁explicit	-7217
▁infamous	-7218
▁national	-7219
▁portrait	-7220
▁troubled	-7221
▁broadcast	-7222
▁complaint	-7223
1/2	-7224
ELL	-7225
gun	-7226
len	-7227
▁2)	-7228
ingu	-7229
udge	-7230
▁Est	-7231
▁flu	-7232
▁rhy	-7233
asion	-7234
umble	-7235
▁1930	-7236
▁Blue	-7237
▁Elvis	-7238
▁afore	-7239
▁drown	-7240
▁stiff	-7241
▁Cusack	-7242
▁dinner	-7243
▁jungle	-7244
▁preach	-7245
▁Karloff	-7246
▁essence	-7247
▁Eastwood	-7248
▁charisma	-7249
▁homeless	-7250
▁official	-7251
▁searching	-7252
▁appearances	-7253
▁underground	-7254
5,	-7255
OD	-7256
hew	-7257
▁Az	-7258
aude	-7259
cies	-7260
hill	-7261
imag	-7262
ooby	-7263
urse	-7264
▁Din	-7265
▁End	-7266
▁bik	-7267
▁tax	-7268
gging	-7269
▁1990	-7270
▁Were	-7271
▁dump	-7272
▁farm	-7273
▁guts	-7274
▁mont	-7275
......	-7276
entric	-7277
ograph	-7278
▁Hanks	-7279
▁daily	-7280
▁dealt	-7281
▁devil	-7282
▁eager	-7283
▁entry	-7284
▁knife	-7285
▁saves	-7286
▁Unless	-7287
▁chases	-7288
▁ripped	-7289
▁switch	-7290
▁comfort	-7291
▁dragged	-7292
▁happily	-7293
▁disappear	-7294
▁expensive	-7295
▁incoherent	-7296
▁Nevertheless	-7297
!.	-7298
5.	-7299
too	-7300
ype	-7301
▁24	-7302
ogue	-7303
only	-7304
rich	-7305
▁Age	-7306
▁Fel	-7307
▁Hot	-7308
▁Jac	-7309
▁Mom	-7310
▁Tem	-7311
▁oil	-7312
adows	-7313
ellar	-7314
plete	-7315
▁2000	-7316
▁2006	-7317
▁Kath	-7318
▁Kirk	-7319
▁Mann	-7320
▁aged	-7321
▁goal	-7322
▁hole	-7323
horror	-7324
▁Grace	-7325
▁eerie	-7326
▁newsp	-7327
▁split	-7328
▁urban	-7329
▁Family	-7330
▁Heston	-7331
▁abrupt	-7332
▁infect	-7333
▁spread	-7334
▁checking	-7335
▁inexplic	-7336
▁striking	-7337
▁competent	-7338
▁reactions	-7339
▁thrillers	-7340
▁unforgettable	-7341
We	-7342
ANT	-7343
ran	-7344
▁$1	-7345
They	-7346
quis	-7347
vest	-7348
when	-7349
▁Cry	-7350
▁Log	-7351
▁Club	-7352
▁Real	-7353
▁Reyn	-7354
▁hill	-7355
▁vent	-7356
ctions	-7357
▁plant	-7358
▁pseud	-7359
asingly	-7360
▁School	-7361
▁covers	-7362
▁ingred	-7363
▁plague	-7364
▁shoots	-7365
▁tender	-7366
▁boredom	-7367
▁crafted	-7368
▁restaur	-7369
▁colorful	-7370
▁sexually	-7371
▁techniques	-7372
No	-7373
EAD	-7374
Mar	-7375
hoe	-7376
umm	-7377
HING	-7378
agan	-7379
imum	-7380
lear	-7381
rett	-7382
▁Air	-7383
▁Dev	-7384
▁Mid	-7385
▁agg	-7386
▁alt	-7387
▁gal	-7388
acked	-7389
icker	-7390
ierce	-7391
▁Bach	-7392
▁Jake	-7393
▁cere	-7394
▁folk	-7395
iently	-7396
oilers	-7397
▁burst	-7398
▁grows	-7399
enstein	-7400
ishment	-7401
uristic	-7402
▁Hudson	-7403
▁poster	-7404
▁rushed	-7405
▁sevent	-7406
▁territ	-7407
▁thread	-7408
▁tricks	-7409
▁Titanic	-7410
▁explore	-7411
▁tribute	-7412
▁millions	-7413
▁countless	-7414
▁strangely	-7415
aka	-7416
rep	-7417
▁AT	-7418
▁Fu	-7419
afia	-7420
iber	-7421
idel	-7422
rell	-7423
▁III	-7424
▁Ira	-7425
▁lur	-7426
▁tag	-7427
▁1/10	-7428
▁Brid	-7429
▁Fire	-7430
▁Mass	-7431
▁busy	-7432
▁toss	-7433
▁webs	-7434
minute	-7435
uclear	-7436
▁Andre	-7437
▁Chuck	-7438
▁Could	-7439
▁Laura	-7440
▁Lloyd	-7441
▁Princ	-7442
▁quote	-7443
ambling	-7444
▁Elvira	-7445
▁cousin	-7446
▁repeat	-7447
▁resour	-7448
▁stunts	-7449
▁thirty	-7450
▁closely	-7451
▁basement	-7452
▁stronger	-7453
▁transfer	-7454
▁carefully	-7455
▁hopefully	-7456
▁professor	-7457
▁horrendous	-7458
▁represents	-7459
▁surrounded	-7460
▁surrounding	-7461
▁photographer	-7462
7.	-7463
alo	-7464
obe	-7465
via	-7466
book	-7467
▁Bus	-7468
▁Kub	-7469
▁Ten	-7470
atisf	-7471
ushes	-7472
▁Lake	-7473
▁Lane	-7474
▁Norm	-7475
▁Roll	-7476
▁feed	-7477
▁fish	-7478
▁poet	-7479
▁sons	-7480
atures	-7481
urious	-7482
usions	-7483
▁Burns	-7484
▁Water	-7485
▁fears	-7486
▁limit	-7487
▁virus	-7488
▁walls	-7489
▁Canada	-7490
▁corner	-7491
▁occurs	-7492
▁shower	-7493
▁stated	-7494
▁detract	-7495
▁stretch	-7496
▁exercise	-7497
▁messages	-7498
▁requires	-7499
▁attempted	-7500
▁intentions	-7501
▁charismatic	-7502
rd	-7503
BLE	-7504
ata	-7505
nes	-7506
oni	-7507
▁MU	-7508
allo	-7509
cket	-7510
erty	-7511
onse	-7512
▁fra	-7513
arter	-7514
▁Falk	-7515
iation	-7516
redict	-7517
riller	-7518
▁Apart	-7519
▁Woman	-7520
▁drags	-7521
▁fired	-7522
▁honor	-7523
▁Doctor	-7524
▁Ritter	-7525
▁dramas	-7526
▁easier	-7527
▁madness	-7528
▁attached	-7529
▁identify	-7530
▁painting	-7531
▁phenomen	-7532
▁suspects	-7533
▁thousand	-7534
▁vacation	-7535
▁increasingly	-7536
At	-7537
Bra	-7538
ato	-7539
bal	-7540
ibl	-7541
new	-7542
ora	-7543
thew	-7544
▁Kap	-7545
▁Lam	-7546
▁mes	-7547
dated	-7548
plots	-7549
▁Book	-7550
▁elev	-7551
▁exch	-7552
ifting	-7553
ointed	-7554
▁Clint	-7555
▁Miike	-7556
▁Witch	-7557
▁kicks	-7558
▁notch	-7559
Michael	-7560
▁Almost	-7561
▁Fortun	-7562
▁fourth	-7563
▁restra	-7564
▁videos	-7565
▁wicked	-7566
▁Astaire	-7567
▁Science	-7568
▁adapted	-7569
▁dropped	-7570
▁library	-7571
▁network	-7572
▁workers	-7573
▁projects	-7574
▁believing	-7575
▁elsewhere	-7576
▁brilliance	-7577
▁inevitable	-7578
▁profession	-7579
hs	-7580
den	-7581
orc	-7582
▁MA	-7583
▁PG	-7584
cont	-7585
fact	-7586
iors	-7587
udos	-7588
▁Bol	-7589
▁Gal	-7590
▁Hug	-7591
▁Ice	-7592
▁Met	-7593
▁Res	-7594
▁reb	-7595
▁shy	-7596
accur	-7597
chell	-7598
works	-7599
▁Made	-7600
▁Spir	-7601
▁depe	-7602
▁imit	-7603
▁ramp	-7604
▁wave	-7605
anging	-7606
ructed	-7607
▁cabin	-7608
▁domin	-7609
▁strip	-7610
▁Carrey	-7611
▁Mother	-7612
▁Thanks	-7613
▁econom	-7614
▁flight	-7615
existent	-7616
▁Further	-7617
▁conclud	-7618
▁fortune	-7619
▁handful	-7620
▁thrills	-7621
▁Reynolds	-7622
▁relevant	-7623
▁spending	-7624
▁president	-7625
▁acceptable	-7626
▁associated	-7627
▁attraction	-7628
▁encounters	-7629
hey	-7630
lon	-7631
pse	-7632
▁SU	-7633
such	-7634
unky	-7635
▁Cox	-7636
▁Dom	-7637
▁Has	-7638
▁Los	-7639
▁Rub	-7640
▁wra	-7641
entin	-7642
▁Four	-7643
▁Kane	-7644
▁hype	-7645
▁rain	-7646
direct	-7647
pieces	-7648
rifice	-7649
▁Domin	-7650
▁alike	-7651
▁etern	-7652
▁stood	-7653
▁Bakshi	-7654
▁Carter	-7655
▁Cinema	-7656
▁Dawson	-7657
▁Golden	-7658
▁Rather	-7659
▁enters	-7660
▁riding	-7661
▁vulner	-7662
▁pleased	-7663
▁killings	-7664
▁appearing	-7665
▁importance	-7666
sl	-7667
nic	-7668
why	-7669
ambo	-7670
mann	-7671
ords	-7672
▁Abs	-7673
▁Alf	-7674
▁Ren	-7675
▁hes	-7676
kshay	-7677
orrow	-7678
▁Conn	-7679
▁Ring	-7680
▁cave	-7681
▁jerk	-7682
▁ruth	-7683
handed	-7684
itchen	-7685
resses	-7686
▁Bobby	-7687
▁Satan	-7688
▁Spike	-7689
▁faced	-7690
▁Father	-7691
▁Pretty	-7692
▁Secret	-7693
▁crisis	-7694
▁dollar	-7695
▁medium	-7696
▁suburb	-7697
ccentric	-7698
▁chasing	-7699
▁selfish	-7700
▁torment	-7701
▁useless	-7702
▁childish	-7703
▁Nightmare	-7704
▁worthless	-7705
▁importantly	-7706
3)	-7707
Ne	-7708
cul	-7709
roy	-7710
tte	-7711
▁Id	-7712
igan	-7713
urai	-7714
▁Cre	-7715
▁Eva	-7716
▁FOR	-7717
inent	-7718
woman	-7719
▁Navy	-7720
▁Plot	-7721
▁hipp	-7722
▁moon	-7723
▁push	-7724
▁wann	-7725
Arthur	-7726
anting	-7727
itizen	-7728
▁fianc	-7729
▁unple	-7730
▁Comedy	-7731
▁Hunter	-7732
▁Morris	-7733
▁Planet	-7734
▁crimes	-7735
▁Dorothy	-7736
▁Kubrick	-7737
▁advance	-7738
▁fitting	-7739
▁precise	-7740
▁realise	-7741
▁Catholic	-7742
▁stranger	-7743
▁wondered	-7744
▁Australia	-7745
▁continued	-7746
▁instantly	-7747
▁insulting	-7748
▁kidnapped	-7749
▁performing	-7750
▁tremendous	-7751
▁aforementioned	-7752
AIN	-7753
mit	-7754
cend	-7755
kick	-7756
stop	-7757
▁GRE	-7758
▁Hop	-7759
▁Kaz	-7760
shine	-7761
▁Cook	-7762
▁wake	-7763
uments	-7764
▁Aside	-7765
▁Brook	-7766
▁Denzel	-7767
▁Muslim	-7768
▁Season	-7769
▁bridge	-7770
▁homage	-7771
▁insist	-7772
▁letter	-7773
▁listed	-7774
▁talked	-7775
▁toilet	-7776
▁Certain	-7777
▁Leonard	-7778
▁beating	-7779
▁breasts	-7780
▁briefly	-7781
▁creation	-7782
▁flawless	-7783
▁menacing	-7784
▁Excellent	-7785
▁appalling	-7786
▁philosoph	-7787
▁pleasantly	-7788
▁revelation	-7789
▁scientists	-7790
▁destruction	-7791
▁individuals	-7792
▁nonetheless	-7793
▁superficial	-7794
icop	-7795
issy	-7796
▁1/2	-7797
▁Eye	-7798
▁Mas	-7799
▁Pan	-7800
▁pig	-7801
▁sam	-7802
agney	-7803
▁Ever	-7804
▁Neil	-7805
▁Wind	-7806
▁sque	-7807
▁bucks	-7808
▁champ	-7809
▁labor	-7810
▁loser	-7811
itchell	-7812
▁Korean	-7813
▁conven	-7814
▁dancer	-7815
▁drivel	-7816
▁explod	-7817
▁pushed	-7818
▁Brosnan	-7819
▁Whether	-7820
▁illustr	-7821
▁inaccur	-7822
▁allowing	-7823
▁mistaken	-7824
▁Catherine	-7825
▁attracted	-7826
▁resolution	-7827
▁consequences	-7828
▁investigation	-7829
▁sophisticated	-7830
ds	-7831
ux	-7832
ERE	-7833
▁..	-7834
isms	-7835
oner	-7836
▁hun	-7837
grade	-7838
icing	-7839
ortal	-7840
▁Play	-7841
▁Shep	-7842
▁dare	-7843
▁dust	-7844
▁jack	-7845
▁tons	-7846
isions	-7847
▁Mitch	-7848
▁rocks	-7849
▁warri	-7850
▁Jeremy	-7851
▁beings	-7852
▁cowboy	-7853
▁height	-7854
▁robber	-7855
▁strang	-7856
▁Cameron	-7857
▁artific	-7858
▁disease	-7859
▁jealous	-7860
▁nuclear	-7861
▁opposed	-7862
▁persona	-7863
▁wonders	-7864
▁argument	-7865
▁creators	-7866
▁planning	-7867
▁Francisco	-7868
▁curiosity	-7869
▁slightest	-7870
▁superhero	-7871
▁repetitive	-7872
nda	-7873
ped	-7874
▁Ma	-7875
ixon	-7876
pses	-7877
quel	-7878
▁10,	-7879
▁ABC	-7880
▁Try	-7881
▁Mild	-7882
▁bold	-7883
▁judg	-7884
erning	-7885
▁Farre	-7886
▁Films	-7887
▁Sally	-7888
▁beast	-7889
▁grasp	-7890
spector	-7891
▁Cagney	-7892
▁Davies	-7893
▁Silver	-7894
▁buried	-7895
▁convol	-7896
▁editor	-7897
▁lacked	-7898
▁packed	-7899
icularly	-7900
▁fifteen	-7901
▁forgive	-7902
▁reunion	-7903
▁watches	-7904
▁incompet	-7905
▁invisible	-7906
▁secretary	-7907
▁unpleasant	-7908
▁accomplished	-7909
▁psychiatrist	-7910
80	-7911
==	-7912
ado	-7913
agn	-7914
ipe	-7915
obi	-7916
oto	-7917
...)	-7918
corn	-7919
type	-7920
▁50'	-7921
▁alb	-7922
▁jew	-7923
acted	-7924
▁Fall	-7925
▁Ruth	-7926
▁Shaw	-7927
▁carn	-7928
▁Natal	-7929
▁cared	-7930
veloped	-7931
writers	-7932
▁Franco	-7933
▁reluct	-7934
▁struck	-7935
▁ticket	-7936
▁Picture	-7937
▁holiday	-7938
▁replace	-7939
▁subplot	-7940
▁stealing	-7941
▁ambitious	-7942
▁inspiring	-7943
▁remaining	-7944
▁outrageous	-7945
▁overlooked	-7946
▁captivating	-7947
▁directorial	-7948
▁exaggerated	-7949
▁installment	-7950
▁photographed	-7951
60	-7952
ala	-7953
cula	-7954
elli	-7955
uate	-7956
▁Arm	-7957
▁CIA	-7958
▁Scr	-7959
▁pin	-7960
▁row	-7961
eling	-7962
iders	-7963
inder	-7964
lines	-7965
oiler	-7966
think	-7967
▁Bart	-7968
▁Cost	-7969
▁bust	-7970
▁dire	-7971
▁prev	-7972
▁styl	-7973
hoeven	-7974
weight	-7975
▁Uncle	-7976
▁raped	-7977
▁shout	-7978
▁Fisher	-7979
▁beaten	-7980
▁borrow	-7981
▁estate	-7982
▁hearts	-7983
▁strike	-7984
▁bullets	-7985
▁hitting	-7986
▁hunting	-7987
▁generous	-7988
▁overdone	-7989
▁response	-7990
▁timeless	-7991
▁miserably	-7992
▁revealing	-7993
▁redemption	-7994
▁subsequent	-7995
▁competition	-7996
▁technically	-7997
▁melodramatic	-7998
▁documentaries	-7999
2,	-8000
30	-8001
9,	-8002
raw	-8003
urg	-8004
▁1)	-8005
aled	-8006
erto	-8007
▁Jer	-8008
▁saf	-8009
▁Josh	-8010
▁Robb	-8011
▁chap	-8012
▁grou	-8013
▁nail	-8014
▁sail	-8015
▁Event	-8016
▁brand	-8017
▁clues	-8018
▁farce	-8019
isation	-8020
▁Return	-8021
▁absorb	-8022
▁dignity	-8023
▁factory	-8024
▁ignored	-8025
▁pulling	-8026
▁reduced	-8027
istically	-8028
▁morality	-8029
▁strictly	-8030
▁Alexander	-8031
▁Verhoeven	-8032
▁eccentric	-8033
▁compassion	-8034
Mr	-8035
▁Aw	-8036
▁EX	-8037
ione	-8038
oooo	-8039
seen	-8040
uros	-8041
▁Ful	-8042
▁toy	-8043
aning	-8044
estic	-8045
▁Mach	-8046
▁hung	-8047
▁maid	-8048
▁prec	-8049
▁tool	-8050
ablish	-8051
▁Felix	-8052
▁NEVER	-8053
▁Perry	-8054
▁draws	-8055
▁ingen	-8056
▁venge	-8057
▁Craven	-8058
▁Scooby	-8059
▁darker	-8060
▁sticks	-8061
▁accused	-8062
▁elderly	-8063
▁obscure	-8064
▁vicious	-8065
▁Goldberg	-8066
▁intrigued	-8067
▁territory	-8068
▁frustrated	-8069
▁uninspired	-8070
▁achievement	-8071
1)	-8072
4,	-8073
▁_	-8074
aga	-8075
rer	-8076
sex	-8077
▁8.	-8078
▁SN	-8079
keys	-8080
ophy	-8081
oric	-8082
uity	-8083
▁Dri	-8084
▁Kat	-8085
▁Net	-8086
▁Set	-8087
▁Sov	-8088
▁gar	-8089
anski	-8090
paced	-8091
wered	-8092
▁Grey	-8093
▁Nice	-8094
▁abys	-8095
▁corn	-8096
▁diff	-8097
▁hire	-8098
▁hunt	-8099
▁intr	-8100
▁nine	-8101
▁wrap	-8102
hattan	-8103
ingers	-8104
ortion	-8105
terday	-8106
▁areas	-8107
▁bleak	-8108
▁chest	-8109
▁exhib	-8110
▁inher	-8111
▁marks	-8112
▁obser	-8113
▁ought	-8114
▁patri	-8115
▁shall	-8116
▁tales	-8117
▁addict	-8118
▁comics	-8119
▁string	-8120
▁throat	-8121
▁assault	-8122
▁logical	-8123
▁admitted	-8124
▁returned	-8125
▁superbly	-8126
▁sacrifice	-8127
▁convoluted	-8128
▁discussion	-8129
▁motivation	-8130
▁grandmother	-8131
▁unintentionally	-8132
va	-8133
dri	-8134
plo	-8135
sky	-8136
▁SC	-8137
obal	-8138
onym	-8139
pass	-8140
rase	-8141
▁Att	-8142
▁Hey	-8143
▁duo	-8144
antis	-8145
eller	-8146
ilted	-8147
izard	-8148
video	-8149
▁1960	-8150
▁Down	-8151
▁Iron	-8152
▁Mars	-8153
▁Mupp	-8154
▁Rome	-8155
▁gimm	-8156
▁hood	-8157
▁slim	-8158
▁candy	-8159
▁chain	-8160
▁clown	-8161
▁maint	-8162
▁noble	-8163
▁stead	-8164
▁suits	-8165
▁Akshay	-8166
▁Laurel	-8167
▁defend	-8168
▁horrid	-8169
▁spooky	-8170
▁conserv	-8171
▁helicop	-8172
▁outcome	-8173
▁politic	-8174
▁require	-8175
▁spoiled	-8176
▁whoever	-8177
▁distance	-8178
▁magazine	-8179
▁cardboard	-8180
▁elaborate	-8181
▁Throughout	-8182
▁hysterical	-8183
▁reasonable	-8184
▁reasonably	-8185
8.	-8186
AA	-8187
fle	-8188
igo	-8189
itar	-8190
nery	-8191
town	-8192
▁Gun	-8193
▁tea	-8194
verty	-8195
▁Berg	-8196
▁Duke	-8197
▁Eyre	-8198
▁frag	-8199
▁Blake	-8200
▁Final	-8201
▁Wells	-8202
▁aimed	-8203
▁angel	-8204
▁cried	-8205
▁rapid	-8206
▁stone	-8207
▁wheel	-8208
▁Gothic	-8209
▁Romero	-8210
▁boxing	-8211
▁partly	-8212
▁premie	-8213
▁relent	-8214
▁unsett	-8215
▁distant	-8216
▁failing	-8217
▁pretend	-8218
▁worried	-8219
▁National	-8220
▁arrested	-8221
▁bathroom	-8222
▁collabor	-8223
▁internet	-8224
▁lifetime	-8225
▁occurred	-8226
rehensible	-8227
▁landscape	-8228
▁notorious	-8229
▁unbearable	-8230
▁;	-8231
Who	-8232
aws	-8233
box	-8234
rim	-8235
▁Oz	-8236
▁Vo	-8237
icol	-8238
rink	-8239
▁Doc	-8240
▁Ian	-8241
▁Tur	-8242
olves	-8243
stars	-8244
▁Cher	-8245
▁Hind	-8246
▁Joey	-8247
▁Shah	-8248
▁asse	-8249
▁dict	-8250
▁iron	-8251
▁sedu	-8252
oubted	-8253
urance	-8254
▁Heart	-8255
▁Jamie	-8256
▁Jesse	-8257
▁Revol	-8258
▁blank	-8259
▁blend	-8260
▁conve	-8261
▁fatal	-8262
▁merit	-8263
▁ranks	-8264
▁satir	-8265
atingly	-8266
▁Altman	-8267
▁Beatty	-8268
▁Summer	-8269
▁Turner	-8270
▁arrive	-8271
▁demons	-8272
▁engine	-8273
▁intent	-8274
▁sloppy	-8275
▁Timothy	-8276
▁demands	-8277
▁existed	-8278
▁inhabit	-8279
▁picking	-8280
▁poverty	-8281
▁reached	-8282
▁studios	-8283
▁Mitchell	-8284
▁affected	-8285
▁definite	-8286
▁displays	-8287
▁precious	-8288
▁resembles	-8289
▁returning	-8290
▁repeatedly	-8291
▁restaurant	-8292
▁commercials	-8293
▁differences	-8294
jo	-8295
yc	-8296
Dav	-8297
Paul	-8298
hour	-8299
otal	-8300
▁McD	-8301
▁dre	-8302
▁fox	-8303
▁une	-8304
ables	-8305
▁9/10	-8306
▁Corb	-8307
▁Mort	-8308
▁beer	-8309
▁lake	-8310
▁rive	-8311
▁1950'	-8312
▁Given	-8313
▁Right	-8314
▁illeg	-8315
▁noise	-8316
▁swear	-8317
▁threw	-8318
because	-8319
▁Except	-8320
▁antics	-8321
▁burned	-8322
▁enjoys	-8323
▁idiots	-8324
▁inform	-8325
▁Indians	-8326
▁Mystery	-8327
▁chances	-8328
▁receive	-8329
▁website	-8330
▁Griffith	-8331
▁Honestly	-8332
▁electric	-8333
▁improved	-8334
▁movements	-8335
▁providing	-8336
▁psychotic	-8337
▁conspiracy	-8338
▁involvement	-8339
▁choreography	-8340
▁ridiculously	-8341
ni	-8342
abs	-8343
iar	-8344
idy	-8345
▁2,	-8346
▁Op	-8347
▁Pu	-8348
▁pa	-8349
That	-8350
also	-8351
aris	-8352
lers	-8353
lest	-8354
▁Gil	-8355
▁Pam	-8356
▁Saw	-8357
▁Tru	-8358
▁gut	-8359
icism	-8360
▁Bush	-8361
▁Dave	-8362
▁Peck	-8363
▁foul	-8364
▁nerv	-8365
▁size	-8366
▁wack	-8367
makers	-8368
verted	-8369
▁Danes	-8370
▁argue	-8371
▁blast	-8372
▁juven	-8373
▁oddly	-8374
▁sport	-8375
▁trade	-8376
▁humili	-8377
▁insert	-8378
▁observ	-8379
▁uneven	-8380
▁Mildred	-8381
▁absence	-8382
▁dentist	-8383
▁jumping	-8384
▁respond	-8385
▁strikes	-8386
▁unwatch	-8387
▁Hamilton	-8388
▁Princess	-8389
▁metaphor	-8390
▁scripted	-8391
▁tortured	-8392
▁afterwards	-8393
▁recognized	-8394
▁Fortunately	-8395
▁proceedings	-8396
▁threatening	-8397
";	-8398
CE	-8399
Not	-8400
agg	-8401
van	-8402
▁Gw	-8403
"...	-8404
mail	-8405
▁BUT	-8406
▁Kay	-8407
▁Nob	-8408
cover	-8409
lands	-8410
opsis	-8411
▁Fore	-8412
▁Lily	-8413
▁Pick	-8414
itudes	-8415
▁River	-8416
▁Worst	-8417
▁Years	-8418
▁fancy	-8419
▁gotta	-8420
▁maker	-8421
▁nause	-8422
▁sales	-8423
related	-8424
▁Bottom	-8425
▁Norman	-8426
▁misses	-8427
▁poison	-8428
▁settle	-8429
▁unfair	-8430
▁Century	-8431
▁Kennedy	-8432
▁dynamic	-8433
▁exposed	-8434
▁sadness	-8435
▁screams	-8436
▁extended	-8437
▁imagined	-8438
▁ruthless	-8439
▁sadistic	-8440
▁Nicholson	-8441
▁symbolism	-8442
▁Eventually	-8443
▁concerning	-8444
▁population	-8445
▁astonishing	-8446
▁investigate	-8447
4.	-8448
▁=	-8449
AND	-8450
▁45	-8451
abel	-8452
bing	-8453
burn	-8454
enes	-8455
foot	-8456
obic	-8457
road	-8458
ruci	-8459
▁Low	-8460
▁Med	-8461
▁Mun	-8462
▁Pur	-8463
▁Row	-8464
▁ack	-8465
▁asp	-8466
eping	-8467
rocod	-8468
secut	-8469
▁Bell	-8470
▁Hank	-8471
▁Make	-8472
▁root	-8473
imated	-8474
▁Fonda	-8475
▁Karen	-8476
▁blows	-8477
▁cliff	-8478
▁piano	-8479
▁trend	-8480
ketball	-8481
▁Castle	-8482
▁Kapoor	-8483
▁acknow	-8484
▁albeit	-8485
▁devast	-8486
ographed	-8487
▁Granted	-8488
▁Ireland	-8489
▁Kenneth	-8490
▁devoted	-8491
▁engaged	-8492
▁kitchen	-8493
▁Margaret	-8494
▁befriend	-8495
▁function	-8496
▁intrigue	-8497
▁machines	-8498
▁westerns	-8499
▁gradually	-8500
▁newspaper	-8501
▁typically	-8502
▁highlights	-8503
▁overwhelming	-8504
2)	-8505
Ad	-8506
la	-8507
eps	-8508
▁21	-8509
Star	-8510
ffee	-8511
gate	-8512
ipes	-8513
▁nep	-8514
aware	-8515
fight	-8516
uloid	-8517
▁Garb	-8518
▁Line	-8519
▁Roth	-8520
▁Scot	-8521
▁Shir	-8522
▁Sing	-8523
▁load	-8524
minded	-8525
▁Fulci	-8526
▁Glenn	-8527
▁Palma	-8528
▁Quite	-8529
▁Video	-8530
▁pitch	-8531
▁prede	-8532
▁staff	-8533
▁Juliet	-8534
▁Series	-8535
▁combat	-8536
▁cringe	-8537
▁defeat	-8538
▁errors	-8539
▁genres	-8540
▁liking	-8541
▁maniac	-8542
▁nearby	-8543
▁worlds	-8544
▁Matthew	-8545
▁Modesty	-8546
▁Stiller	-8547
▁acclaim	-8548
▁drunken	-8549
▁popcorn	-8550
▁birthday	-8551
▁imperson	-8552
▁overrated	-8553
▁futuristic	-8554
▁blockbuster	-8555
▁comfortable	-8556
▁meaningless	-8557
ec	-8558
ho	-8559
OST	-8560
▁Kar	-8561
▁bog	-8562
▁psy	-8563
agine	-8564
mares	-8565
uated	-8566
▁1940	-8567
▁Cold	-8568
▁Harr	-8569
▁LOVE	-8570
▁Lots	-8571
▁Supp	-8572
▁Thus	-8573
▁Todd	-8574
▁aunt	-8575
▁barg	-8576
▁bott	-8577
▁ward	-8578
▁Enjoy	-8579
▁Greek	-8580
▁Miles	-8581
▁Rings	-8582
▁Worth	-8583
▁tires	-8584
▁Dragon	-8585
▁Ginger	-8586
▁groups	-8587
▁headed	-8588
▁mesmer	-8589
▁pseudo	-8590
▁relies	-8591
▁styles	-8592
▁titled	-8593
oubtedly	-8594
thriller	-8595
▁escaped	-8596
▁exploit	-8597
▁horrors	-8598
▁notably	-8599
▁detailed	-8600
▁narrator	-8601
▁offering	-8602
redictable	-8603
▁Manhattan	-8604
▁abilities	-8605
▁disturbed	-8606
▁innovative	-8607
▁Considering	-8608
▁ingredients	-8609
▁resemblance	-8610
▁conversations	-8611
8,	-8612
El	-8613
SS	-8614
ERS	-8615
ONG	-8616
aks	-8617
aux	-8618
gal	-8619
lik	-8620
▁AW	-8621
heim	-8622
oral	-8623
umsy	-8624
▁Han	-8625
▁cig	-8626
▁ech	-8627
▁web	-8628
emark	-8629
plane	-8630
stage	-8631
uable	-8632
water	-8633
▁(196	-8634
▁Five	-8635
▁Stra	-8636
▁Zero	-8637
▁clic	-8638
▁sill	-8639
▁tame	-8640
Donald	-8641
icient	-8642
itches	-8643
series	-8644
▁Stars	-8645
▁Woods	-8646
▁aging	-8647
▁bears	-8648
▁beats	-8649
▁glory	-8650
▁immig	-8651
▁notes	-8652
▁rural	-8653
ionship	-8654
jointed	-8655
▁apolog	-8656
▁bullet	-8657
▁daring	-8658
▁fortun	-8659
▁harder	-8660
▁orders	-8661
▁scheme	-8662
▁stress	-8663
▁Wallace	-8664
▁cameras	-8665
▁digital	-8666
▁removed	-8667
▁staying	-8668
▁coherent	-8669
▁misunder	-8670
▁explosion	-8671
▁murderous	-8672
▁producing	-8673
▁succeeded	-8674
▁explosions	-8675
▁scientific	-8676
▁distracting	-8677
▁possibility	-8678
▁unwatchable	-8679
▁unbelievably	-8680
,,	-8681
7,	-8682
ACK	-8683
ARD	-8684
ahl	-8685
aph	-8686
ees	-8687
nch	-8688
▁Py	-8689
Will	-8690
cean	-8691
oder	-8692
▁cup	-8693
▁ego	-8694
▁gro	-8695
▁lit	-8696
emies	-8697
oning	-8698
▁100%	-8699
▁dear	-8700
▁odds	-8701
ellers	-8702
estyle	-8703
▁Based	-8704
▁Craig	-8705
▁smoke	-8706
ocative	-8707
plicity	-8708
▁Paulie	-8709
▁Soviet	-8710
▁Warren	-8711
▁banned	-8712
▁builds	-8713
▁handed	-8714
▁passes	-8715
rilliant	-8716
▁Florida	-8717
▁careers	-8718
▁catches	-8719
▁dancers	-8720
▁excruci	-8721
▁wannabe	-8722
▁Lawrence	-8723
▁Remember	-8724
▁clothing	-8725
▁journalist	-8726
▁deliberately	-8727
5)	-8728
ido	-8729
rah	-8730
zen	-8731
idal	-8732
ourt	-8733
▁bes	-8734
▁vib	-8735
udden	-8736
▁Bull	-8737
▁Hack	-8738
▁Live	-8739
▁Luck	-8740
▁fart	-8741
▁grab	-8742
▁plat	-8743
▁sadd	-8744
▁shel	-8745
ixture	-8746
▁Emily	-8747
▁Price	-8748
▁Terry	-8749
▁amuse	-8750
▁slave	-8751
▁souls	-8752
▁Lemmon	-8753
▁Voight	-8754
▁glamor	-8755
▁hunter	-8756
▁notion	-8757
▁patter	-8758
▁Alexand	-8759
▁drawing	-8760
▁kidding	-8761
▁measure	-8762
▁portion	-8763
▁scratch	-8764
▁selling	-8765
▁adequate	-8766
▁backdrop	-8767
▁explored	-8768
▁juvenile	-8769
▁subjects	-8770
▁affection	-8771
▁financial	-8772
▁predecess	-8773
▁implausible	-8774
▁conventional	-8775
6,	-8776
Con	-8777
got	-8778
ses	-8779
▁MY	-8780
▁UN	-8781
----	-8782
aser	-8783
gren	-8784
gypt	-8785
love	-8786
odge	-8787
▁Ele	-8788
▁Mol	-8789
▁Nov	-8790
▁Pen	-8791
▁Pot	-8792
▁anx	-8793
▁bin	-8794
zilla	-8795
▁Edie	-8796
▁Fool	-8797
▁Pegg	-8798
▁Soph	-8799
▁ease	-8800
▁impe	-8801
▁sham	-8802
itched	-8803
school	-8804
▁Brady	-8805
▁Thing	-8806
▁doors	-8807
▁inapp	-8808
▁indul	-8809
▁motor	-8810
▁slick	-8811
▁steam	-8812
▁Hamlet	-8813
▁adoles	-8814
▁clumsy	-8815
▁coffee	-8816
▁corpse	-8817
▁dozens	-8818
▁golden	-8819
▁league	-8820
▁silver	-8821
▁tracks	-8822
▁transp	-8823
▁vulgar	-8824
umentary	-8825
▁Strange	-8826
▁causing	-8827
▁hideous	-8828
▁liberal	-8829
▁loosely	-8830
▁primary	-8831
▁shadows	-8832
▁unfolds	-8833
conscious	-8834
▁Absolute	-8835
▁Brooklyn	-8836
▁Polanski	-8837
▁offended	-8838
▁Godfather	-8839
▁Recommend	-8840
▁decisions	-8841
▁interrupt	-8842
▁countryside	-8843
▁consistently	-8844
▁characteristic	-8845
▁{	-8846
bed	-8847
omn	-8848
say	-8849
▁CD	-8850
gger	-8851
ieve	-8852
rict	-8853
▁Ext	-8854
▁Vis	-8855
▁awe	-8856
▁mic	-8857
chest	-8858
fined	-8859
maybe	-8860
nered	-8861
yrics	-8862
▁Cuba	-8863
▁Hist	-8864
▁Hugh	-8865
▁Hung	-8866
▁bone	-8867
▁pray	-8868
▁sand	-8869
▁stro	-8870
▁trio	-8871
atched	-8872
cience	-8873
ularly	-8874
▁*****	-8875
▁Holly	-8876
▁Homer	-8877
▁Marsh	-8878
▁Nazis	-8879
▁coach	-8880
▁hates	-8881
▁label	-8882
▁trees	-8883
warming	-8884
▁Berlin	-8885
▁Gadget	-8886
▁Gandhi	-8887
▁Legend	-8888
▁Walker	-8889
▁devoid	-8890
incingly	-8891
▁NOTHING	-8892
▁avoided	-8893
▁benefit	-8894
▁blatant	-8895
▁mixture	-8896
▁reaches	-8897
▁travels	-8898
▁composed	-8899
▁sacrific	-8900
▁Certainly	-8901
▁describes	-8902
▁dialogues	-8903
▁lifestyle	-8904
▁mountains	-8905
▁performer	-8906
▁satisfied	-8907
▁trademark	-8908
▁Characters	-8909
▁philosophy	-8910
▁thoughtful	-8911
▁unsettling	-8912
▁frustration	-8913
')	-8914
Fr	-8915
__	-8916
esc	-8917
oir	-8918
▁RO	-8919
crow	-8920
otte	-8921
pled	-8922
▁HBO	-8923
▁Pie	-8924
▁Sop	-8925
▁reh	-8926
acies	-8927
adine	-8928
anson	-8929
itual	-8930
never	-8931
▁Hick	-8932
▁Hurt	-8933
▁Marc	-8934
▁Song	-8935
▁alle	-8936
▁outs	-8937
▁pays	-8938
▁sarc	-8939
▁tall	-8940
▁urge	-8941
bidden	-8942
izable	-8943
vation	-8944
▁Donna	-8945
▁Field	-8946
▁Garbo	-8947
▁Third	-8948
▁audio	-8949
▁bless	-8950
▁filth	-8951
▁hints	-8952
▁props	-8953
▁resur	-8954
▁shine	-8955
▁shirt	-8956
▁Seeing	-8957
▁Streep	-8958
▁brains	-8959
▁exotic	-8960
▁hatred	-8961
▁houses	-8962
▁specif	-8963
▁staged	-8964
▁thumbs	-8965
ifferent	-8966
▁Angeles	-8967
▁Hartley	-8968
▁Madonna	-8969
▁Neither	-8970
▁buddies	-8971
▁classes	-8972
▁directs	-8973
▁dismiss	-8974
▁montage	-8975
▁smaller	-8976
▁stinker	-8977
▁cannibal	-8978
▁enormous	-8979
▁sidekick	-8980
▁synopsis	-8981
▁authority	-8982
▁celluloid	-8983
▁currently	-8984
▁fundament	-8985
▁immensely	-8986
▁disjointed	-8987
▁explaining	-8988
▁influenced	-8989
▁prostitute	-8990
▁backgrounds	-8991
▁desperation	-8992
abh	-8993
obs	-8994
▁Kn	-8995
▁fo	-8996
ican	-8997
ours	-8998
pril	-8999
rier	-9000
▁Kum	-9001
▁bew	-9002
agues	-9003
ayson	-9004
child	-9005
leton	-9006
oples	-9007
phant	-9008
▁Eyes	-9009
▁Niro	-9010
▁alas	-9011
▁whim	-9012
ceived	-9013
ulsive	-9014
▁EVERY	-9015
▁Shell	-9016
▁Stall	-9017
▁drops	-9018
▁forms	-9019
▁signs	-9020
▁Maggie	-9021
▁damage	-9022
▁doomed	-9023
▁finger	-9024
▁outfit	-9025
▁robots	-9026
▁suited	-9027
▁useful	-9028
▁Jeffrey	-9029
▁Olivier	-9030
▁bedroom	-9031
▁encoura	-9032
▁endings	-9033
▁enemies	-9034
▁nervous	-9035
▁cheating	-9036
▁inferior	-9037
▁commented	-9038
▁senseless	-9039
▁transport	-9040
▁unintentional	-9041
As	-9042
La	-9043
fu	-9044
▁Ju	-9045
ccer	-9046
issa	-9047
llie	-9048
▁fed	-9049
▁tad	-9050
break	-9051
forms	-9052
itled	-9053
ookie	-9054
ovich	-9055
▁Call	-9056
▁Code	-9057
▁Ross	-9058
▁Skip	-9059
▁Sold	-9060
▁bang	-9061
▁west	-9062
▁wont	-9063
▁Hills	-9064
▁Lumet	-9065
▁mouse	-9066
▁optim	-9067
▁shelf	-9068
▁thugs	-9069
▁winds	-9070
ossibly	-9071
▁Murder	-9072
▁candid	-9073
▁endure	-9074
▁lasted	-9075
▁lyrics	-9076
▁models	-9077
▁prejud	-9078
▁rebell	-9079
function	-9080
▁Special	-9081
▁Thunder	-9082
▁guessed	-9083
▁highest	-9084
▁instant	-9085
▁matches	-9086
▁motives	-9087
▁topless	-9088
▁weakest	-9089
▁focusing	-9090
▁sentence	-9091
▁Inspector	-9092
▁dedicated	-9093
▁illogical	-9094
▁miserable	-9095
▁primarily	-9096
▁horrifying	-9097
▁introduces	-9098
▁remarkably	-9099
▁simplistic	-9100
▁nevertheless	-9101
"!	-9102
-)	-9103
Do	-9104
cia	-9105
izz	-9106
ukh	-9107
▁je	-9108
shot	-9109
▁McL	-9110
▁Sha	-9111
▁Uwe	-9112
▁wis	-9113
great	-9114
▁(195	-9115
▁Gund	-9116
▁Hunt	-9117
▁Iraq	-9118
▁Macy	-9119
▁Read	-9120
▁adul	-9121
▁elim	-9122
▁muse	-9123
▁tail	-9124
ilarly	-9125
▁Annie	-9126
▁April	-9127
▁Chase	-9128
▁Times	-9129
▁persu	-9130
▁pride	-9131
▁recru	-9132
▁stabb	-9133
▁Harvey	-9134
▁chased	-9135
▁heroic	-9136
▁nephew	-9137
▁severe	-9138
aneously	-9139
▁burning	-9140
▁captain	-9141
▁generic	-9142
▁justify	-9143
▁secrets	-9144
▁smoking	-9145
▁stellar	-9146
▁whereas	-9147
▁adorable	-9148
▁hopeless	-9149
▁officers	-9150
▁practice	-9151
▁recorded	-9152
▁troubles	-9153
▁unsatisf	-9154
▁According	-9155
▁displayed	-9156
▁artificial	-9157
▁transition	-9158
▁disappeared	-9159
▁cinematographer	-9160
On	-9161
pel	-9162
rip	-9163
▁FX	-9164
▁TR	-9165
ATCH	-9166
aith	-9167
assy	-9168
bbed	-9169
esis	-9170
iper	-9171
mill	-9172
ptly	-9173
riel	-9174
unts	-9175
ysis	-9176
▁dys	-9177
▁pir	-9178
▁tie	-9179
angle	-9180
chers	-9181
ental	-9182
ooges	-9183
orney	-9184
peror	-9185
white	-9186
▁Arab	-9187
▁Save	-9188
▁Sept	-9189
▁Talk	-9190
▁flop	-9191
▁gall	-9192
▁Diana	-9193
▁Latin	-9194
▁curse	-9195
▁disli	-9196
▁fluff	-9197
▁inane	-9198
▁monot	-9199
▁dating	-9200
▁depend	-9201
▁instit	-9202
▁kicked	-9203
▁solely	-9204
▁suspic	-9205
▁temper	-9206
SPOILERS	-9207
▁Bergman	-9208
▁Dickens	-9209
▁Dracula	-9210
▁Imagine	-9211
▁Somehow	-9212
▁Swedish	-9213
▁claimed	-9214
▁contrad	-9215
▁funeral	-9216
▁survival	-9217
▁companion	-9218
▁contained	-9219
▁formulaic	-9220
▁developing	-9221
▁thankfully	-9222
▁interaction	-9223
▁similarities	-9224
▁possibilities	-9225
HA	-9226
▁[	-9227
ATE	-9228
hil	-9229
olk	-9230
rue	-9231
run	-9232
ryn	-9233
▁3-	-9234
▁Ly	-9235
▁RE	-9236
aval	-9237
▁Miy	-9238
David	-9239
angel	-9240
funny	-9241
osing	-9242
oured	-9243
▁Antw	-9244
▁Cham	-9245
▁Lund	-9246
▁acid	-9247
▁blew	-9248
▁ears	-9249
▁heat	-9250
▁icon	-9251
▁mudd	-9252
▁util	-9253
wright	-9254
▁Adams	-9255
▁Diane	-9256
▁Rambo	-9257
▁Tommy	-9258
▁flies	-9259
▁forty	-9260
▁misle	-9261
▁rooms	-9262
▁shoes	-9263
ivalent	-9264
perfect	-9265
▁Julian	-9266
▁agrees	-9267
▁fantas	-9268
▁hypnot	-9269
▁photos	-9270
▁trashy	-9271
▁Vampire	-9272
▁divorce	-9273
▁honesty	-9274
▁illness	-9275
▁painted	-9276
▁planned	-9277
▁emphasis	-9278
▁goodness	-9279
▁ignorant	-9280
▁instinct	-9281
▁subtlety	-9282
▁depressed	-9283
▁altogether	-9284
▁consistent	-9285
▁psychopath	-9286
▁considerable	-9287
▁International	-9288
▁transformation	-9289
6)	-9290
ESS	-9291
cha	-9292
eta	-9293
▁Ce	-9294
aman	-9295
eyed	-9296
irts	-9297
numb	-9298
rina	-9299
wind	-9300
▁ONE	-9301
▁WAS	-9302
▁aid	-9303
▁pad	-9304
▁sab	-9305
▁wet	-9306
gling	-9307
human	-9308
▁Doll	-9309
▁Fish	-9310
▁Khan	-9311
▁Palt	-9312
▁Simp	-9313
▁anth	-9314
▁calm	-9315
▁cats	-9316
▁excl	-9317
▁mund	-9318
▁publ	-9319
strong	-9320
▁Actor	-9321
▁Ellen	-9322
▁cards	-9323
▁hence	-9324
▁hurts	-9325
▁tunes	-9326
retched	-9327
▁Grinch	-9328
▁Valent	-9329
▁faults	-9330
▁implic	-9331
▁treats	-9332
▁wished	-9333
▁Sellers	-9334
▁Winters	-9335
▁applaud	-9336
▁contrib	-9337
▁surfing	-9338
astically	-9339
▁arrogant	-9340
▁contempl	-9341
▁isolated	-9342
▁promised	-9343
▁tiresome	-9344
ropriately	-9345
▁dinosaurs	-9346
▁inventive	-9347
▁corruption	-9348
▁stereotype	-9349
▁politically	-9350
▁embarrassment	-9351
4)	-9352
So	-9353
One	-9354
oma	-9355
put	-9356
zer	-9357
▁PR	-9358
born	-9359
mons	-9360
stin	-9361
then	-9362
▁---	-9363
▁Aff	-9364
▁Rat	-9365
▁Viv	-9366
▁arc	-9367
▁fog	-9368
▁rum	-9369
▁ups	-9370
▁von	-9371
acles	-9372
▁(194	-9373
▁Fant	-9374
▁Fear	-9375
▁Judy	-9376
▁Pars	-9377
▁jazz	-9378
▁sits	-9379
▁thru	-9380
▁user	-9381
▁wore	-9382
icking	-9383
▁GREAT	-9384
▁Sever	-9385
▁gloss	-9386
▁loads	-9387
▁nurse	-9388
▁overt	-9389
▁scope	-9390
▁thief	-9391
mission	-9392
▁Dalton	-9393
▁Origin	-9394
▁Spirit	-9395
▁faster	-9396
▁monkey	-9397
▁princi	-9398
▁waited	-9399
!!!!!!!!	-9400
▁Paltrow	-9401
▁Shirley	-9402
▁Simpson	-9403
▁silence	-9404
▁Campbell	-9405
▁downhill	-9406
▁glorious	-9407
▁purchase	-9408
ploitation	-9409
▁conscious	-9410
▁discovery	-9411
▁delivering	-9412
▁nomination	-9413
▁philosophical	-9414
8)	-9415
Is	-9416
UM	-9417
▁Ot	-9418
orus	-9419
prov	-9420
ptic	-9421
▁Bud	-9422
▁Sub	-9423
based	-9424
check	-9425
iably	-9426
▁Cary	-9427
▁Days	-9428
▁Dill	-9429
▁REAL	-9430
▁Ward	-9431
▁cens	-9432
▁mall	-9433
▁rein	-9434
▁stir	-9435
▁trav	-9436
ivable	-9437
▁Dixon	-9438
▁Sound	-9439
▁Timon	-9440
▁Wendy	-9441
▁Whoop	-9442
▁chess	-9443
▁lackl	-9444
▁newly	-9445
▁reads	-9446
ensions	-9447
▁Carrie	-9448
▁Mickey	-9449
▁agents	-9450
▁assemb	-9451
▁dances	-9452
▁halluc	-9453
▁taught	-9454
▁Christy	-9455
▁Stevens	-9456
▁Usually	-9457
▁arrived	-9458
▁closest	-9459
▁commend	-9460
▁compens	-9461
▁shortly	-9462
▁relation	-9463
▁riveting	-9464
▁suitable	-9465
▁corporate	-9466
▁guarantee	-9467
▁nostalgic	-9468
▁possessed	-9469
▁traveling	-9470
▁passionate	-9471
▁motivations	-9472
▁represented	-9473
▁convincingly	-9474
9)	-9475
IP	-9476
gle	-9477
▁FR	-9478
▁OR	-9479
▁ax	-9480
▁ow	-9481
anza	-9482
hind	-9483
vity	-9484
▁Bow	-9485
▁Joh	-9486
▁Leo	-9487
▁SNL	-9488
▁Tal	-9489
▁dud	-9490
▁pub	-9491
▁wig	-9492
Black	-9493
about	-9494
amera	-9495
annah	-9496
anoia	-9497
aping	-9498
atics	-9499
▁Dawn	-9500
▁Kyle	-9501
▁Lena	-9502
▁STAR	-9503
▁Town	-9504
▁dazz	-9505
▁glor	-9506
▁Block	-9507
▁Blond	-9508
▁Civil	-9509
▁Dutch	-9510
▁Egypt	-9511
▁Linda	-9512
▁Mario	-9513
▁Ollie	-9514
▁alter	-9515
▁awake	-9516
▁buffs	-9517
▁instr	-9518
▁irres	-9519
▁recon	-9520
▁shake	-9521
▁stole	-9522
respect	-9523
▁Hopper	-9524
▁Sister	-9525
▁behave	-9526
▁casual	-9527
▁divers	-9528
▁engage	-9529
▁fooled	-9530
inations	-9531
rocodile	-9532
▁Connery	-9533
▁Montana	-9534
▁abysmal	-9535
▁beliefs	-9536
▁despair	-9537
▁surpass	-9538
▁unhappy	-9539
▁Interest	-9540
▁Needless	-9541
▁contrary	-9542
▁maintain	-9543
▁Carradine	-9544
▁Wonderful	-9545
▁conflicts	-9546
▁establish	-9547
▁provoking	-9548
▁terrorist	-9549
7)	-9550
ori	-9551
fast	-9552
▁Myr	-9553
▁Rad	-9554
▁jaw	-9555
▁voy	-9556
antom	-9557
apers	-9558
awful	-9559
▁Band	-9560
▁GOOD	-9561
▁Gore	-9562
▁Sirk	-9563
▁Year	-9564
▁buck	-9565
▁ench	-9566
▁plod	-9567
▁purs	-9568
▁tang	-9569
▁toys	-9570
▁unst	-9571
Robert	-9572
▁Alien	-9573
▁Jenny	-9574
▁Myers	-9575
▁Orson	-9576
▁exped	-9577
▁exter	-9578
▁spare	-9579
attered	-9580
▁Austen	-9581
▁Cowboy	-9582
▁Forget	-9583
▁Gerard	-9584
▁closed	-9585
▁humble	-9586
▁inject	-9587
▁jumped	-9588
▁scores	-9589
▁winter	-9590
austroph	-9591
▁designs	-9592
▁desired	-9593
▁diamond	-9594
▁Richards	-9595
▁Scottish	-9596
▁eighties	-9597
▁hardcore	-9598
▁splatter	-9599
▁swimming	-9600
▁valuable	-9601
▁alcoholic	-9602
▁executive	-9603
▁gangsters	-9604
▁seventies	-9605
▁yesterday	-9606
▁Richardson	-9607
▁presumably	-9608
▁progresses	-9609
▁Recommended	-9610
▁dimensional	-9611
▁translation	-9612
▁understated	-9613
▁undoubtedly	-9614
▁understandable	-9615
6.	-9616
Br	-9617
Int	-9618
OME	-9619
ORE	-9620
was	-9621
)...	-9622
Jack	-9623
Well	-9624
ello	-9625
iley	-9626
otta	-9627
uart	-9628
ushi	-9629
▁Cab	-9630
▁Cut	-9631
▁Fro	-9632
▁LOT	-9633
▁Odd	-9634
▁Top	-9635
▁mal	-9636
▁sen	-9637
▁sup	-9638
▁upl	-9639
▁wow	-9640
again	-9641
hears	-9642
onica	-9643
ovsky	-9644
unior	-9645
▁(193	-9646
▁Cann	-9647
▁Elli	-9648
▁blur	-9649
▁duty	-9650
▁edit	-9651
▁lord	-9652
▁mile	-9653
▁prol	-9654
levant	-9655
movies	-9656
▁Close	-9657
▁chaos	-9658
▁hyper	-9659
▁porno	-9660
▁sappy	-9661
▁spoke	-9662
charact	-9663
ference	-9664
▁Gundam	-9665
▁advise	-9666
▁catchy	-9667
▁french	-9668
▁intric	-9669
▁lowest	-9670
▁plight	-9671
▁racial	-9672
▁rubber	-9673
▁safety	-9674
▁soccer	-9675
▁Farrell	-9676
▁Germans	-9677
▁Profess	-9678
▁Scrooge	-9679
▁Several	-9680
▁abusive	-9681
▁amounts	-9682
▁beneath	-9683
▁depicts	-9684
▁engross	-9685
▁lengthy	-9686
▁remarks	-9687
▁spirits	-9688
▁staring	-9689
▁Jonathan	-9690
▁Robinson	-9691
▁partners	-9692
▁secretly	-9693
▁survived	-9694
▁Beautiful	-9695
▁buildings	-9696
▁education	-9697
▁purchased	-9698
▁destroying	-9699
▁nightmares	-9700
▁simplicity	-9701
▁grandfather	-9702
▁questionable	-9703
-2	-9704
bu	-9705
▁6.	-9706
▁fi	-9707
ench	-9708
hist	-9709
olit	-9710
▁cul	-9711
Night	-9712
isons	-9713
▁Chic	-9714
▁ONLY	-9715
▁obst	-9716
▁shod	-9717
antino	-9718
astern	-9719
▁1970'	-9720
▁Short	-9721
▁Soder	-9722
▁Spock	-9723
▁Vegas	-9724
▁Women	-9725
▁analy	-9726
▁stark	-9727
otesque	-9728
▁Amanda	-9729
▁absent	-9730
▁condem	-9731
▁custom	-9732
▁facing	-9733
▁incest	-9734
▁undert	-9735
▁couples	-9736
▁illegal	-9737
▁leaders	-9738
▁monolog	-9739
▁schlock	-9740
▁stilted	-9741
▁brutally	-9742
▁trailers	-9743
▁nostalgia	-9744
▁principal	-9745
▁rendition	-9746
▁complexity	-9747
▁helicopter	-9748
▁vulnerable	-9749
▁recognition	-9750
▁construction	-9751
▁revolutionary	-9752
ca	-9753
AST	-9754
Mur	-9755
Why	-9756
han	-9757
▁Ep	-9758
▁Rh	-9759
ersh	-9760
eryl	-9761
gers	-9762
inne	-9763
rows	-9764
▁Duk	-9765
▁Kol	-9766
▁Put	-9767
▁Unt	-9768
▁fro	-9769
▁sus	-9770
alley	-9771
inity	-9772
leans	-9773
▁2/10	-9774
▁Amit	-9775
▁Fans	-9776
▁Hood	-9777
▁Kent	-9778
▁dish	-9779
▁gest	-9780
▁mate	-9781
▁rage	-9782
headed	-9783
icable	-9784
ifully	-9785
itable	-9786
▁Claus	-9787
▁Dirty	-9788
▁Edgar	-9789
▁Force	-9790
▁Loren	-9791
▁bands	-9792
▁crush	-9793
▁equip	-9794
▁guide	-9795
▁hench	-9796
▁legal	-9797
▁pants	-9798
ensical	-9799
▁Alfred	-9800
▁Nobody	-9801
▁button	-9802
▁cliche	-9803
▁earned	-9804
▁messed	-9805
▁quotes	-9806
▁unexpl	-9807
▁worker	-9808
▁letters	-9809
▁vaguely	-9810
▁wrapped	-9811
▁distingu	-9812
▁helpless	-9813
▁parallel	-9814
▁patients	-9815
▁proceeds	-9816
▁reaching	-9817
▁viewings	-9818
▁wretched	-9819
▁Therefore	-9820
▁attitudes	-9821
▁celebrity	-9822
▁realizing	-9823
▁relatives	-9824
▁resources	-9825
▁witnessed	-9826
▁claustroph	-9827
▁pretending	-9828
▁advertising	-9829
▁challenging	-9830
▁experiments	-9831
▁exploration	-9832
▁responsibility	-9833
"-	-9834
IV	-9835
bi	-9836
hum	-9837
▁Ok	-9838
OULD	-9839
ashi	-9840
lins	-9841
ouch	-9842
quer	-9843
▁Amy	-9844
▁Bal	-9845
▁Dud	-9846
▁Spr	-9847
▁Syd	-9848
▁Ven	-9849
bbing	-9850
every	-9851
pered	-9852
quest	-9853
raham	-9854
▁Biko	-9855
▁Craw	-9856
▁Kids	-9857
▁Note	-9858
▁bird	-9859
▁code	-9860
▁entr	-9861
▁indu	-9862
▁reck	-9863
▁saga	-9864
▁sung	-9865
▁twin	-9866
ousing	-9867
▁Champ	-9868
▁Drake	-9869
▁Trans	-9870
▁bonus	-9871
▁clock	-9872
▁grate	-9873
▁indic	-9874
▁Bacall	-9875
▁Carell	-9876
▁Peters	-9877
▁Rooney	-9878
▁Sandra	-9879
▁Scream	-9880
▁Writer	-9881
▁closet	-9882
▁copies	-9883
▁detect	-9884
▁dreary	-9885
▁ensues	-9886
▁joined	-9887
▁poetic	-9888
▁ritual	-9889
▁rocket	-9890
▁widely	-9891
▁Gabriel	-9892
▁cheated	-9893
▁elegant	-9894
▁granted	-9895
▁persons	-9896
▁satisfy	-9897
▁visible	-9898
▁Godzilla	-9899
▁Lundgren	-9900
▁incorpor	-9901
▁inherent	-9902
▁opinions	-9903
▁subplots	-9904
▁Barrymore	-9905
▁alongside	-9906
▁compelled	-9907
▁dimension	-9908
▁Absolutely	-9909
▁accomplish	-9910
▁confidence	-9911
▁fascinated	-9912
▁dysfunction	-9913
▁potentially	-9914
▁appreciation	-9915
▁specifically	-9916
AP	-9917
cop	-9918
fan	-9919
alsh	-9920
amer	-9921
avia	-9922
club	-9923
cult	-9924
felt	-9925
icia	-9926
iped	-9927
izek	-9928
plex	-9929
sect	-9930
vice	-9931
▁9/1	-9932
▁Dig	-9933
▁Eri	-9934
▁Jed	-9935
▁Pay	-9936
▁Rex	-9937
▁Sen	-9938
▁Sex	-9939
▁WAR	-9940
▁aka	-9941
▁ren	-9942
agner	-9943
azaki	-9944
azing	-9945
bergh	-9946
force	-9947
front	-9948
istan	-9949
ormal	-9950
▁....	-9951
▁Burg	-9952
▁June	-9953
▁Reid	-9954
▁Wolf	-9955
▁cake	-9956
▁mish	-9957
▁riot	-9958
annels	-9959
master	-9960
▁Damon	-9961
▁Human	-9962
▁McLag	-9963
▁colon	-9964
▁habit	-9965
▁seeks	-9966
▁south	-9967
▁tends	-9968
▁Argent	-9969
▁Follow	-9970
▁Nathan	-9971
▁Simply	-9972
▁poetry	-9973
▁resort	-9974
▁troops	-9975
▁visits	-9976
▁Belushi	-9977
▁Chicago	-9978
▁arrival	-9979
▁mundane	-9980
▁substit	-9981
▁yelling	-9982
▁Virginia	-9983
▁floating	-9984
▁intimate	-9985
▁showcase	-9986
▁mysteries	-9987
▁prisoners	-9988
▁equivalent	-9989
▁terrorists	-9990
▁constructed	-9991
▁manipulative	-9992
▁inappropriate	-9993
.(	-9994
-19	-9995
chi	-9996
mma	-9997
omm	-9998
thm	-9999
wan	-10000
▁35	-10001
▁Ur	-10002
acks	-10003
ioni	-10004
oked	-10005
orky	-10006
▁Bay	-10007
▁Hat	-10008
▁Von	-10009
▁ape	-10010
▁lun	-10011
ansas	-10012
ighty	-10013
ption	-10014
uries	-10015
▁Bald	-10016
▁Boys	-10017
▁Clar	-10018
▁Penn	-10019
▁boun	-10020
▁cure	-10021
▁glim	-10022
▁pale	-10023
amount	-10024
ilight	-10025
ompson	-10026
uation	-10027
worthy	-10028
▁Carla	-10029
▁Nicol	-10030
▁arist	-10031
▁campa	-10032
▁legit	-10033
▁photo	-10034
▁tooth	-10035
likable	-10036
▁Brazil	-10037
▁Commun	-10038
▁Either	-10039
▁Willis	-10040
▁bottle	-10041
▁global	-10042
▁warmth	-10043
▁Abraham	-10044
▁Amitabh	-10045
▁Scarlet	-10046
▁Shelley	-10047
▁Theater	-10048
▁centers	-10049
▁chooses	-10050
▁enlight	-10051
▁foolish	-10052
▁parties	-10053
▁sincere	-10054
▁trained	-10055
▁Secondly	-10056
▁channels	-10057
▁demented	-10058
▁Charlotte	-10059
▁capturing	-10060
▁plausible	-10061
▁survivors	-10062
▁irrelevant	-10063
▁Furthermore	-10064
▁exceptionally	-10065
▁opportunities	-10066
AW	-10067
Lu	-10068
RY	-10069
did	-10070
dog	-10071
gia	-10072
oly	-10073
pin	-10074
▁Mo	-10075
▁ce	-10076
isha	-10077
main	-10078
▁NYC	-10079
▁awa	-10080
▁vig	-10081
arity	-10082
blood	-10083
maker	-10084
tends	-10085
▁Crow	-10086
▁Less	-10087
▁Nort	-10088
▁Zone	-10089
▁poem	-10090
▁pops	-10091
imagin	-10092
inding	-10093
▁Dolph	-10094
▁Early	-10095
▁Girls	-10096
▁Molly	-10097
▁Quinn	-10098
▁Shame	-10099
▁Walsh	-10100
▁reson	-10101
▁stale	-10102
▁unden	-10103
onymous	-10104
ructive	-10105
▁Alison	-10106
▁agreed	-10107
▁cities	-10108
▁losers	-10109
▁morbid	-10110
▁spaces	-10111
▁spring	-10112
▁square	-10113
▁stream	-10114
▁wisdom	-10115
▁writes	-10116
▁Cassidy	-10117
▁awfully	-10118
▁combine	-10119
▁convict	-10120
▁kicking	-10121
▁methods	-10122
▁minimum	-10123
▁robbery	-10124
▁unaware	-10125
▁Atlantis	-10126
▁Scotland	-10127
▁Southern	-10128
▁Stallone	-10129
▁Thompson	-10130
▁advanced	-10131
▁performs	-10132
▁travesty	-10133
▁alternate	-10134
▁classical	-10135
▁comparing	-10136
▁equipment	-10137
▁excessive	-10138
▁grotesque	-10139
▁slaughter	-10140
▁vengeance	-10141
▁wandering	-10142
▁witnesses	-10143
▁Christians	-10144
▁creativity	-10145
▁mechanical	-10146
▁choreographed	-10147
▁~	-10148
eor	-10149
isy	-10150
oby	-10151
pre	-10152
tta	-10153
Good	-10154
bury	-10155
free	-10156
iour	-10157
ocol	-10158
osey	-10159
pion	-10160
ripp	-10161
▁Dee	-10162
▁Dow	-10163
▁Eli	-10164
▁Wel	-10165
▁map	-10166
claim	-10167
faced	-10168
mpire	-10169
ugene	-10170
▁Bron	-10171
▁Fell	-10172
▁Hyde	-10173
▁Jord	-10174
▁Mind	-10175
▁Owen	-10176
▁dirt	-10177
▁lips	-10178
▁priv	-10179
▁punk	-10180
▁ties	-10181
actors	-10182
ixties	-10183
stinov	-10184
▁Kuros	-10185
▁cheek	-10186
▁meand	-10187
borough	-10188
issance	-10189
venture	-10190
▁Darren	-10191
▁Domino	-10192
▁dragon	-10193
▁ethnic	-10194
▁lately	-10195
▁misery	-10196
▁rolled	-10197
▁summar	-10198
▁Grayson	-10199
▁History	-10200
▁Luckily	-10201
▁Monster	-10202
▁Simmons	-10203
▁Ustinov	-10204
▁Zombies	-10205
▁bargain	-10206
▁crucial	-10207
▁empathy	-10208
▁mankind	-10209
▁protest	-10210
▁wishing	-10211
▁Miyazaki	-10212
▁bumbling	-10213
▁disgrace	-10214
▁frequent	-10215
▁mentions	-10216
▁paranoia	-10217
▁polished	-10218
▁purposes	-10219
▁randomly	-10220
▁restored	-10221
▁Naturally	-10222
▁climactic	-10223
▁conceived	-10224
▁introduce	-10225
▁masterful	-10226
▁Soderbergh	-10227
▁literature	-10228
▁popularity	-10229
▁suspicious	-10230
▁incompetent	-10231
▁civilization	-10232
▁conservative	-10233
▁intentionally	-10234
40	-10235
?'	-10236
wl	-10237
Dan	-10238
col	-10239
gra	-10240
lem	-10241
▁3)	-10242
▁Ca	-10243
▁Kl	-10244
eder	-10245
ften	-10246
ldom	-10247
okey	-10248
▁DON	-10249
▁SEE	-10250
▁WHY	-10251
▁fee	-10252
anges	-10253
arrel	-10254
cking	-10255
haust	-10256
inter	-10257
onson	-10258
reens	-10259
sycho	-10260
ugust	-10261
▁Bela	-10262
▁Case	-10263
▁Face	-10264
▁Gret	-10265
▁Math	-10266
▁Rukh	-10267
▁deaf	-10268
▁loos	-10269
▁lush	-10270
▁rude	-10271
▁rush	-10272
arents	-10273
icolor	-10274
thello	-10275
▁Court	-10276
▁Zizek	-10277
▁armed	-10278
▁recyc	-10279
▁ruins	-10280
▁snake	-10281
▁sneak	-10282
▁tribe	-10283
▁valid	-10284
▁Action	-10285
▁Cruise	-10286
▁behold	-10287
▁doubts	-10288
▁exquis	-10289
▁gender	-10290
▁online	-10291
▁orphan	-10292
▁rotten	-10293
attering	-10294
izations	-10295
ulations	-10296
▁blowing	-10297
▁gimmick	-10298
▁pushing	-10299
▁smiling	-10300
prisingly	-10301
▁Directed	-10302
▁Kurosawa	-10303
▁assigned	-10304
▁receives	-10305
▁Antonioni	-10306
▁expressed	-10307
▁household	-10308
▁integrity	-10309
▁interests	-10310
▁neighbors	-10311
▁activities	-10312
▁expedition	-10313
▁underlying	-10314
▁unoriginal	-10315
▁businessman	-10316
▁hilariously	-10317
!'	-10318
vi	-10319
▁–	-10320
IDS	-10321
ali	-10322
bet	-10323
fly	-10324
rin	-10325
sur	-10326
ucc	-10327
▁BA	-10328
Just	-10329
ties	-10330
umbo	-10331
▁Cou	-10332
▁Doo	-10333
▁McK	-10334
▁Meg	-10335
▁Nin	-10336
▁Squ	-10337
▁san	-10338
acity	-10339
bable	-10340
enger	-10341
overn	-10342
ravel	-10343
▁2001	-10344
▁Earl	-10345
▁Fast	-10346
▁Hero	-10347
▁fren	-10348
▁quit	-10349
▁unle	-10350
▁warr	-10351
▁whis	-10352
illian	-10353
▁Among	-10354
▁Damme	-10355
▁Mount	-10356
▁Novak	-10357
▁Prest	-10358
▁Spain	-10359
▁eaten	-10360
▁hears	-10361
▁jewel	-10362
▁nomin	-10363
▁phony	-10364
▁Angela	-10365
▁Graham	-10366
▁Temple	-10367
▁Wagner	-10368
▁Watson	-10369
▁fiancé	-10370
▁guitar	-10371
▁limits	-10372
▁menace	-10373
▁merits	-10374
▁signed	-10375
▁simult	-10376
▁stinks	-10377
▁Cassave	-10378
▁assumed	-10379
▁comprom	-10380
▁creator	-10381
▁package	-10382
▁analysis	-10383
▁attorney	-10384
▁cleverly	-10385
▁property	-10386
▁unimagin	-10387
▁waitress	-10388
▁September	-10389
▁correctly	-10390
▁recording	-10391
▁surviving	-10392
▁Ultimately	-10393
▁University	-10394
▁directions	-10395
▁mentioning	-10396
DS	-10397
po	-10398
▁BS	-10399
▁Cy	-10400
????	-10401
arts	-10402
rain	-10403
rock	-10404
yers	-10405
▁Fan	-10406
▁WAY	-10407
Queen	-10408
creen	-10409
indul	-10410
shell	-10411
▁Cart	-10412
▁Game	-10413
▁List	-10414
▁baff	-10415
▁bell	-10416
▁chew	-10417
▁furn	-10418
▁nerd	-10419
▁romp	-10420
▁roof	-10421
▁sess	-10422
▁sust	-10423
ampoon	-10424
erness	-10425
▁Alone	-10426
▁Betty	-10427
▁Seven	-10428
▁album	-10429
▁birds	-10430
▁dreck	-10431
▁grabs	-10432
▁moody	-10433
▁obliv	-10434
▁wacky	-10435
▁Ashley	-10436
▁Louise	-10437
▁demean	-10438
▁expand	-10439
▁lively	-10440
▁render	-10441
▁versus	-10442
▁Fiction	-10443
▁Frankie	-10444
▁Orleans	-10445
▁Perfect	-10446
▁Phillip	-10447
▁Raymond	-10448
▁Sheriff	-10449
▁alleged	-10450
▁careful	-10451
▁defense	-10452
▁fighter	-10453
▁species	-10454
▁suspend	-10455
▁unravel	-10456
developed	-10457
▁McLaglen	-10458
▁Nicholas	-10459
▁Sunshine	-10460
▁assassin	-10461
▁catching	-10462
▁domestic	-10463
▁patience	-10464
▁pressure	-10465
▁princess	-10466
▁resemble	-10467
▁teaching	-10468
▁ambiguous	-10469
▁brutality	-10470
▁depicting	-10471
▁greatness	-10472
▁marketing	-10473
▁shameless	-10474
▁stretched	-10475
▁tasteless	-10476
▁definition	-10477
▁exposition	-10478
▁industrial	-10479
▁overacting	-10480
▁punishment	-10481
▁reflection	-10482
▁accompanied	-10483
▁adaptations	-10484
▁distribution	-10485
▁masterpieces	-10486
▁heartbreaking	-10487
!,	-10488
sa	-10489
Ang	-10490
Hey	-10491
INE	-10492
ati	-10493
met	-10494
nel	-10495
angh	-10496
arse	-10497
emic	-10498
hile	-10499
iker	-10500
leck	-10501
offs	-10502
xton	-10503
▁Got	-10504
▁Jet	-10505
▁Lex	-10506
▁Poe	-10507
▁dod	-10508
▁fur	-10509
▁max	-10510
▁ram	-10511
burne	-10512
matic	-10513
ucker	-10514
▁Post	-10515
▁Side	-10516
▁bugs	-10517
▁flag	-10518
▁nuts	-10519
▁shed	-10520
▁surg	-10521
▁wing	-10522
ooding	-10523
ourney	-10524
▁Ethan	-10525
▁Sweet	-10526
▁Vance	-10527
▁grass	-10528
▁intim	-10529
▁sched	-10530
▁slice	-10531
▁Justin	-10532
▁Spring	-10533
▁Willie	-10534
▁assign	-10535
▁cattle	-10536
▁demise	-10537
▁therap	-10538
▁wholly	-10539
▁Preston	-10540
▁archite	-10541
▁recover	-10542
▁stunned	-10543
▁tonight	-10544
▁warrior	-10545
▁Crawford	-10546
▁Normally	-10547
▁deceased	-10548
▁disliked	-10549
▁passable	-10550
▁promises	-10551
▁showdown	-10552
▁Everybody	-10553
▁companies	-10554
▁immediate	-10555
▁laughably	-10556
▁supported	-10557
▁wrestling	-10558
▁conditions	-10559
▁generations	-10560
▁nonsensical	-10561
▁confrontation	-10562
▁straightforward	-10563
HO	-10564
MA	-10565
▁x	-10566
▁	-10567
(..	-10568
God	-10569
OUS	-10570
guy	-10571
rum	-10572
▁#1	-10573
▁Ba	-10574
▁PS	-10575
▁Wy	-10576
acts	-10577
both	-10578
brow	-10579
ells	-10580
lymp	-10581
osis	-10582
ubby	-10583
will	-10584
▁jer	-10585
▁lav	-10586
▁woe	-10587
artha	-10588
ctors	-10589
neath	-10590
▁3000	-10591
▁Cube	-10592
▁Tone	-10593
▁amid	-10594
▁clip	-10595
▁unit	-10596
acious	-10597
▁Funny	-10598
▁Marty	-10599
▁cripp	-10600
▁skull	-10601
▁wives	-10602
▁Malone	-10603
▁Raines	-10604
▁amused	-10605
▁greedy	-10606
▁museum	-10607
▁Amazing	-10608
▁exhaust	-10609
▁moronic	-10610
▁prequel	-10611
▁pursuit	-10612
▁refused	-10613
▁witches	-10614
▁wounded	-10615
▁accuracy	-10616
▁arguably	-10617
▁borrowed	-10618
▁campaign	-10619
▁composer	-10620
▁exchange	-10621
▁remained	-10622
▁solution	-10623
▁sounding	-10624
▁southern	-10625
tenborough	-10626
▁MacArthur	-10627
▁Tarantino	-10628
▁biography	-10629
▁inability	-10630
▁objective	-10631
▁subjected	-10632
▁enthusiasm	-10633
▁educational	-10634
▁improvement	-10635
▁Christianity	-10636
▁significance	-10637
▁unpredictable	-10638
yo	-10639
▁+	-10640
lam	-10641
olt	-10642
▁BR	-10643
▁Ka	-10644
▁TW	-10645
Rich	-10646
arer	-10647
enth	-10648
mber	-10649
rehe	-10650
zing	-10651
▁CAN	-10652
▁Hmm	-10653
▁Pig	-10654
▁Und	-10655
▁WIT	-10656
▁lip	-10657
▁tom	-10658
iners	-10659
neyed	-10660
▁Comb	-10661
▁Font	-10662
▁Foxx	-10663
▁Magn	-10664
▁bite	-10665
▁curs	-10666
▁degr	-10667
▁milk	-10668
▁shif	-10669
▁tact	-10670
apable	-10671
guided	-10672
itated	-10673
motion	-10674
▁Chief	-10675
▁Keith	-10676
▁Kumar	-10677
▁Pearl	-10678
▁Title	-10679
▁Truly	-10680
▁Until	-10681
▁grief	-10682
▁mafia	-10683
▁recre	-10684
▁sweat	-10685
agement	-10686
▁Better	-10687
▁Downey	-10688
▁Marion	-10689
▁Middle	-10690
▁Pierce	-10691
▁Russia	-10692
▁Strong	-10693
▁Sudden	-10694
▁Whoopi	-10695
▁awhile	-10696
▁circle	-10697
▁fabric	-10698
▁minded	-10699
▁raises	-10700
▁seduct	-10701
▁senses	-10702
▁tastes	-10703
▁Antwone	-10704
▁Classic	-10705
▁Robbins	-10706
▁defined	-10707
▁desires	-10708
▁landing	-10709
▁loyalty	-10710
▁matched	-10711
▁Marshall	-10712
▁Speaking	-10713
▁invented	-10714
▁stumbled	-10715
▁fashioned	-10716
▁resulting	-10717
▁uplifting	-10718
▁complaints	-10719
▁lackluster	-10720
▁wilderness	-10721
▁alternative	-10722
▁fascination	-10723
▁provocative	-10724
▁difficulties	-10725
▁interactions	-10726
ji	-10727
Let	-10728
big	-10729
kel	-10730
uno	-10731
yll	-10732
▁SP	-10733
▁WT	-10734
▁Ze	-10735
NING	-10736
atum	-10737
aved	-10738
avez	-10739
ayed	-10740
bust	-10741
ints	-10742
make	-10743
oria	-10744
reet	-10745
rien	-10746
rome	-10747
stru	-10748
wear	-10749
▁191	-10750
▁Rel	-10751
▁WWE	-10752
▁bee	-10753
▁gym	-10754
▁ori	-10755
▁vom	-10756
drama	-10757
ensen	-10758
ersed	-10759
ricia	-10760
ucing	-10761
▁Bert	-10762
▁Conf	-10763
▁Gard	-10764
▁Gwyn	-10765
▁Joel	-10766
▁Lamb	-10767
▁darn	-10768
▁dile	-10769
▁fist	-10770
▁sums	-10771
▁wars	-10772
aneous	-10773
modern	-10774
oopers	-10775
▁Dance	-10776
▁Hawke	-10777
▁Inter	-10778
▁Meryl	-10779
▁bread	-10780
▁greed	-10781
▁joins	-10782
▁rates	-10783
▁roots	-10784
▁shaky	-10785
▁tacky	-10786
▁wakes	-10787
itizens	-10788
thought	-10789
visible	-10790
▁Beyond	-10791
▁Brenda	-10792
▁Clarke	-10793
▁Incred	-10794
▁abused	-10795
▁chicks	-10796
▁fought	-10797
▁ponder	-10798
▁wildly	-10799
osterous	-10800
▁Hopkins	-10801
▁Looking	-10802
▁Palance	-10803
▁Whoever	-10804
▁antagon	-10805
▁checked	-10806
▁females	-10807
▁orchest	-10808
▁ordered	-10809
▁psychic	-10810
▁teaches	-10811
oneliness	-10812
▁Hopefully	-10813
▁blackmail	-10814
▁precisely	-10815
▁primitive	-10816
▁respected	-10817
▁shoulders	-10818
▁silliness	-10819
▁depression	-10820
▁frightened	-10821
▁misleading	-10822
▁counterpart	-10823
▁frustrating	-10824
MAN	-10825
Tom	-10826
dem	-10827
mad	-10828
▁1,	-10829
▁KN	-10830
▁ya	-10831
ctic	-10832
dies	-10833
held	-10834
ipid	-10835
lied	-10836
spir	-10837
talk	-10838
ylum	-10839
▁Ern	-10840
▁Fra	-10841
▁Jod	-10842
▁MTV	-10843
James	-10844
abled	-10845
asted	-10846
ellig	-10847
power	-10848
urned	-10849
▁Half	-10850
▁Rent	-10851
▁Wang	-10852
▁dose	-10853
▁neur	-10854
▁prey	-10855
▁sear	-10856
▁soci	-10857
▁ster	-10858
▁tank	-10859
acking	-10860
anghai	-10861
atured	-10862
emesis	-10863
orders	-10864
▁1930'	-10865
▁Boyle	-10866
▁McCoy	-10867
▁Storm	-10868
▁Union	-10869
▁balls	-10870
▁decor	-10871
▁enthr	-10872
▁lands	-10873
▁petty	-10874
▁rings	-10875
▁tripe	-10876
iceless	-10877
through	-10878
▁Eugene	-10879
▁Fuller	-10880
▁Newman	-10881
▁astron	-10882
▁ballet	-10883
▁choppy	-10884
▁narrow	-10885
▁phrase	-10886
▁puppet	-10887
▁report	-10888
▁rising	-10889
▁shared	-10890
▁Bridget	-10891
▁Colonel	-10892
▁glasses	-10893
▁muddled	-10894
▁peoples	-10895
▁quietly	-10896
▁Basinger	-10897
▁Chamberl	-10898
▁Terrible	-10899
▁audition	-10900
▁musician	-10901
▁absurdity	-10902
▁encourage	-10903
▁musicians	-10904
▁policeman	-10905
▁suggested	-10906
▁unlikable	-10907
▁basketball	-10908
particularly	-10909
▁caricatures	-10910
▁celebration	-10911
▁complaining	-10912
▁fundamental	-10913
▁sensational	-10914
▁Attenborough	-10915
▁respectively	-10916
▁appropriately	-10917
▁dysfunctional	-10918
FT	-10919
Un	-10920
IES	-10921
cel	-10922
ika	-10923
iti	-10924
▁22	-10925
Jane	-10926
dead	-10927
essa	-10928
load	-10929
name	-10930
onto	-10931
▁CON	-10932
▁Duv	-10933
▁Gib	-10934
▁Rud	-10935
▁Say	-10936
▁Six	-10937
adise	-10938
ghter	-10939
inned	-10940
notch	-10941
▁Cong	-10942
▁Free	-10943
▁Gray	-10944
▁Lang	-10945
▁Minn	-10946
▁Morm	-10947
▁Ruby	-10948
▁aest	-10949
▁boom	-10950
▁dele	-10951
▁laws	-10952
▁mode	-10953
▁mort	-10954
▁reel	-10955
▁rely	-10956
▁worn	-10957
aughty	-10958
ierney	-10959
length	-10960
▁Bible	-10961
▁Logan	-10962
▁Nolan	-10963
▁Posey	-10964
▁Randy	-10965
▁Schne	-10966
▁Sissy	-10967
▁WATCH	-10968
▁WORST	-10969
▁angst	-10970
▁rifle	-10971
attract	-10972
osition	-10973
▁August	-10974
▁Hammer	-10975
▁McCart	-10976
▁counts	-10977
▁dramat	-10978
▁noises	-10979
▁shoddy	-10980
▁sketch	-10981
▁sleaze	-10982
▁Bernard	-10983
▁Friends	-10984
▁Project	-10985
▁Ramones	-10986
▁Sabrina	-10987
▁Stooges	-10988
▁accepts	-10989
▁charged	-10990
▁destiny	-10991
▁dresses	-10992
▁objects	-10993
▁outfits	-10994
▁retired	-10995
▁servant	-10996
provoking	-10997
▁Massacre	-10998
▁aristocr	-10999
▁literary	-11000
▁realised	-11001
▁releases	-11002
▁roommate	-11003
▁behaviour	-11004
▁fantasies	-11005
▁generated	-11006
▁hackneyed	-11007
▁heartfelt	-11008
▁occasions	-11009
▁priceless	-11010
▁conscience	-11011
▁conviction	-11012
▁imaginable	-11013
▁loneliness	-11014
▁discovering	-11015
▁automatically	-11016
▁simultaneously	-11017
Dr	-11018
Ge	-11019
IRE	-11020
OUR	-11021
eur	-11022
lix	-11023
pan	-11024
two	-11025
▁HE	-11026
▁HK	-11027
▁SF	-11028
▁gh	-11029
Niro	-11030
bast	-11031
chak	-11032
▁Gle	-11033
▁Lad	-11034
▁Lif	-11035
▁ath	-11036
birds	-11037
blown	-11038
▁Bost	-11039
▁Grim	-11040
▁Rita	-11041
▁View	-11042
▁geek	-11043
▁keen	-11044
▁mast	-11045
▁peak	-11046
▁rave	-11047
▁upst	-11048
minger	-11049
really	-11050
▁Cecil	-11051
▁Chand	-11052
▁Kline	-11053
▁Leigh	-11054
▁Vader	-11055
▁breed	-11056
▁bride	-11057
▁flair	-11058
▁shred	-11059
another	-11060
▁Alicia	-11061
▁Murray	-11062
▁Others	-11063
▁Pamela	-11064
▁Paxton	-11065
▁Sharon	-11066
▁Waters	-11067
▁cancer	-11068
▁confir	-11069
▁disast	-11070
▁twelve	-11071
daughter	-11072
▁Baldwin	-11073
▁Believe	-11074
▁adopted	-11075
▁censors	-11076
▁chronic	-11077
▁chuckle	-11078
▁insipid	-11079
▁invites	-11080
▁kissing	-11081
▁miracle	-11082
▁remakes	-11083
▁victory	-11084
identally	-11085
▁Pictures	-11086
▁Republic	-11087
▁deranged	-11088
▁exposure	-11089
▁handling	-11090
▁referred	-11091
▁youngest	-11092
▁Detective	-11093
▁Preminger	-11094
▁imitation	-11095
▁secondary	-11096
▁respective	-11097
▁coincidence	-11098
▁examination	-11099
▁Frankenstein	-11100
▁unexpectedly	-11101
''	-11102
pa	-11103
bot	-11104
bow	-11105
bye	-11106
car	-11107
▁$2	-11108
▁2-	-11109
▁AR	-11110
▁Ki	-11111
▁ME	-11112
When	-11113
auer	-11114
evil	-11115
neck	-11116
▁BIG	-11117
▁Nas	-11118
▁Sea	-11119
▁Slo	-11120
▁nod	-11121
House	-11122
andal	-11123
bound	-11124
ested	-11125
ettes	-11126
goers	-11127
lined	-11128
ppers	-11129
ustin	-11130
▁Dana	-11131
▁Gere	-11132
▁Pete	-11133
▁Snow	-11134
▁WHAT	-11135
▁bump	-11136
▁fade	-11137
▁flee	-11138
▁meas	-11139
actory	-11140
encies	-11141
epburn	-11142
ission	-11143
urning	-11144
▁1980'	-11145
▁Hotel	-11146
▁atroc	-11147
▁delic	-11148
▁pages	-11149
▁prize	-11150
▁realm	-11151
▁rises	-11152
▁steel	-11153
▁tomat	-11154
▁twins	-11155
▁vocal	-11156
pecting	-11157
perhaps	-11158
uration	-11159
▁Angels	-11160
▁Austin	-11161
▁DeNiro	-11162
▁Should	-11163
▁Spacey	-11164
▁Stuart	-11165
▁Surely	-11166
▁active	-11167
▁agenda	-11168
▁hammer	-11169
▁masses	-11170
▁option	-11171
▁owners	-11172
▁refuge	-11173
▁shares	-11174
▁Daniels	-11175
▁Firstly	-11176
▁Gregory	-11177
▁devices	-11178
▁invited	-11179
▁posters	-11180
▁rehears	-11181
▁screens	-11182
▁singers	-11183
▁Laurence	-11184
▁Spoilers	-11185
▁aspiring	-11186
▁citizens	-11187
▁contempt	-11188
▁deserted	-11189
▁designer	-11190
▁historic	-11191
▁infected	-11192
▁premiere	-11193
▁rational	-11194
▁substant	-11195
▁amusement	-11196
▁confident	-11197
▁misguided	-11198
▁operation	-11199
▁startling	-11200
▁viewpoint	-11201
▁challenges	-11202
▁hopelessly	-11203
▁indication	-11204
▁conventions	-11205
▁experimental	-11206
▁historically	-11207
▁inconsistent	-11208
▁preposterous	-11209
To	-11210
!".	-11211
ALL	-11212
IST	-11213
May	-11214
dys	-11215
fet	-11216
hin	-11217
occ	-11218
▁!!	-11219
▁''	-11220
▁'9	-11221
▁AF	-11222
▁ta	-11223
bone	-11224
emet	-11225
ghan	-11226
leen	-11227
ober	-11228
pres	-11229
pton	-11230
show	-11231
▁Div	-11232
▁Elm	-11233
▁Liz	-11234
▁Tak	-11235
▁Woo	-11236
▁tap	-11237
THING	-11238
arson	-11239
eline	-11240
inist	-11241
itzer	-11242
oodle	-11243
ureau	-11244
▁Foot	-11245
▁Gall	-11246
▁Road	-11247
▁Upon	-11248
▁edgy	-11249
▁epit	-11250
▁vain	-11251
Brazil	-11252
orsese	-11253
ounded	-11254
person	-11255
ueless	-11256
▁Quaid	-11257
▁gloom	-11258
▁hokey	-11259
▁ships	-11260
▁showc	-11261
▁waves	-11262
Richard	-11263
covered	-11264
▁Chavez	-11265
▁Esther	-11266
▁Reeves	-11267
▁Screen	-11268
▁chills	-11269
▁namely	-11270
▁posted	-11271
▁prince	-11272
▁stages	-11273
ications	-11274
ventures	-11275
▁Bronson	-11276
▁chapter	-11277
▁cigaret	-11278
▁conveys	-11279
▁glowing	-11280
▁pitiful	-11281
▁visited	-11282
▁gambling	-11283
▁harmless	-11284
▁reflects	-11285
▁regarded	-11286
▁rejected	-11287
▁reported	-11288
▁tracking	-11289
▁visiting	-11290
▁Direction	-11291
▁Professor	-11292
▁murdering	-11293
▁receiving	-11294
▁threatens	-11295
▁disappears	-11296
▁landscapes	-11297
▁positively	-11298
▁weaknesses	-11299
▁anticipation	-11300
▁recommendation	-11301
FE	-11302
▁	-11303
dis	-11304
dra	-11305
eem	-11306
▁2:	-11307
▁IF	-11308
5/10	-11309
Char	-11310
asco	-11311
brid	-11312
date	-11313
mers	-11314
orse	-11315
warf	-11316
▁30'	-11317
▁Hag	-11318
▁Lar	-11319
▁Syl	-11320
▁Tok	-11321
▁org	-11322
ardly	-11323
ranos	-11324
rison	-11325
vance	-11326
▁Alec	-11327
▁Aunt	-11328
▁Bugs	-11329
▁Hain	-11330
▁Head	-11331
▁Hust	-11332
▁Lois	-11333
▁Omen	-11334
▁Tele	-11335
▁Wait	-11336
▁Walt	-11337
▁cher	-11338
▁fles	-11339
▁gear	-11340
▁rats	-11341
▁vein	-11342
ainsaw	-11343
heimer	-11344
icidal	-11345
iculty	-11346
▁Cliff	-11347
▁Cohen	-11348
▁March	-11349
▁Theat	-11350
▁alleg	-11351
▁banal	-11352
▁dimin	-11353
▁rebel	-11354
▁skits	-11355
comings	-11356
▁Buster	-11357
▁Hughes	-11358
▁Jordan	-11359
▁Kidman	-11360
▁Lester	-11361
▁Office	-11362
▁Powers	-11363
▁awaken	-11364
▁guests	-11365
▁hippie	-11366
▁iconic	-11367
▁launch	-11368
▁libert	-11369
▁lifted	-11370
▁loaded	-11371
▁offend	-11372
▁outing	-11373
▁roller	-11374
renching	-11375
▁Gillian	-11376
▁Othello	-11377
▁Tierney	-11378
▁address	-11379
▁caliber	-11380
▁emerges	-11381
▁filling	-11382
▁promote	-11383
▁radical	-11384
▁sixties	-11385
▁swallow	-11386
▁venture	-11387
idescreen	-11388
▁Scorsese	-11389
▁Sopranos	-11390
▁betrayal	-11391
▁previews	-11392
▁severely	-11393
▁shoulder	-11394
▁Brilliant	-11395
▁ignorance	-11396
▁incorrect	-11397
▁selection	-11398
▁strongest	-11399
▁Thankfully	-11400
▁difficulty	-11401
▁portrayals	-11402
▁sympathize	-11403
▁Technically	-11404
▁inexplicably	-11405
,(	-11406
uz	-11407
AME	-11408
VEN	-11409
dad	-11410
lex	-11411
ota	-11412
vas	-11413
▁Ak	-11414
▁BT	-11415
▁IV	-11416
▁UP	-11417
apse	-11418
asse	-11419
ffic	-11420
gins	-11421
kish	-11422
oven	-11423
ropa	-11424
vell	-11425
▁'70	-11426
▁Cob	-11427
▁Sox	-11428
▁Zor	-11429
▁mac	-11430
▁ven	-11431
Death	-11432
actor	-11433
gends	-11434
ipher	-11435
itsch	-11436
▁DEAD	-11437
▁Fitz	-11438
▁Guin	-11439
▁Holl	-11440
▁Left	-11441
▁Pumb	-11442
▁Wing	-11443
▁glee	-11444
▁lens	-11445
▁pulp	-11446
▁stim	-11447
▁zoom	-11448
atable	-11449
ernand	-11450
everly	-11451
omeday	-11452
▁1960'	-11453
▁Ebert	-11454
▁Gersh	-11455
▁Kudos	-11456
▁Scary	-11457
▁Tiger	-11458
▁Trust	-11459
▁Tyler	-11460
▁Warri	-11461
▁abund	-11462
▁brown	-11463
▁cloud	-11464
▁cream	-11465
▁drove	-11466
▁fifty	-11467
▁hammy	-11468
▁homes	-11469
▁minus	-11470
▁quant	-11471
ighters	-11472
instein	-11473
▁Corman	-11474
▁Kansas	-11475
▁Naschy	-11476
▁Nicole	-11477
▁biased	-11478
▁grainy	-11479
▁locals	-11480
▁redund	-11481
▁underm	-11482
probably	-11483
▁Beatles	-11484
▁Brendan	-11485
▁Central	-11486
▁cruelty	-11487
▁fingers	-11488
▁hapless	-11489
▁heading	-11490
▁hearted	-11491
▁hunters	-11492
Hollywood	-11493
character	-11494
▁Fontaine	-11495
▁Straight	-11496
▁conclude	-11497
▁credited	-11498
▁disguise	-11499
▁entitled	-11500
▁explores	-11501
▁teachers	-11502
attractive	-11503
▁mentality	-11504
▁reluctant	-11505
▁strangers	-11506
▁adolescent	-11507
▁despicable	-11508
▁exceptions	-11509
▁obligatory	-11510
▁regardless	-11511
▁communicate	-11512
▁understands	-11513
▁shortcomings	-11514
)!	-11515
uv	-11516
-13	-11517
ART	-11518
FUL	-11519
For	-11520
dig	-11521
▁9.	-11522
▁Mu	-11523
▁WR	-11524
▁ec	-11525
EASE	-11526
chor	-11527
days	-11528
ouri	-11529
ping	-11530
robe	-11531
symp	-11532
yard	-11533
ylan	-11534
▁ACT	-11535
▁Gyp	-11536
▁Roh	-11537
▁Soc	-11538
backs	-11539
geant	-11540
icken	-11541
oming	-11542
ubble	-11543
▁Hend	-11544
▁Jews	-11545
▁coup	-11546
▁eats	-11547
▁penn	-11548
▁span	-11549
corder	-11550
itchie	-11551
▁Alvin	-11552
▁Ariel	-11553
▁Major	-11554
▁Small	-11555
▁bitch	-11556
▁coast	-11557
▁drift	-11558
▁heist	-11559
▁memor	-11560
▁ocean	-11561
▁unimp	-11562
fashion	-11563
winning	-11564
▁Amazon	-11565
▁Duvall	-11566
▁Empire	-11567
▁Harold	-11568
▁Martha	-11569
▁Steele	-11570
▁angels	-11571
▁butler	-11572
▁mayhem	-11573
▁oldest	-11574
▁preced	-11575
▁reader	-11576
▁rhythm	-11577
▁savage	-11578
▁seldom	-11579
▁stores	-11580
directed	-11581
mittedly	-11582
▁Hepburn	-11583
▁Justice	-11584
▁Studios	-11585
▁forcing	-11586
▁insists	-11587
▁judging	-11588
▁morally	-11589
▁transpl	-11590
▁vibrant	-11591
▁Springer	-11592
▁feminist	-11593
▁prisoner	-11594
▁shouting	-11595
▁studying	-11596
▁suitably	-11597
▁admirable	-11598
▁befriends	-11599
▁comedians	-11600
▁profanity	-11601
▁prominent	-11602
▁terrified	-11603
▁universal	-11604
▁contradict	-11605
▁presenting	-11606
▁Blockbuster	-11607
▁Technicolor	-11608
▁unexplained	-11609
▁considerably	-11610
▁representation	-11611
":	-11612
OY	-11613
dan	-11614
iba	-11615
icy	-11616
kas	-11617
oen	-11618
upt	-11619
wee	-11620
▁99	-11621
▁tv	-11622
Plan	-11623
ador	-11624
gian	-11625
herd	-11626
racy	-11627
raph	-11628
vals	-11629
▁Loy	-11630
▁Sho	-11631
▁Wol	-11632
▁anc	-11633
▁bul	-11634
ardom	-11635
atton	-11636
balls	-11637
creat	-11638
eches	-11639
girls	-11640
inson	-11641
itate	-11642
named	-11643
oiled	-11644
▁Cand	-11645
▁Cris	-11646
▁IMDB	-11647
▁Mist	-11648
▁Pink	-11649
▁WITH	-11650
▁Zane	-11651
▁caut	-11652
▁cope	-11653
▁enig	-11654
▁exec	-11655
▁flim	-11656
▁gems	-11657
▁slut	-11658
▁unsu	-11659
ffects	-11660
filled	-11661
ocaust	-11662
okemon	-11663
▁Buddy	-11664
▁Nolte	-11665
▁backs	-11666
▁bleed	-11667
▁chees	-11668
▁couch	-11669
▁crook	-11670
▁intro	-11671
▁spont	-11672
▁towns	-11673
▁whale	-11674
atively	-11675
berlake	-11676
rection	-11677
working	-11678
writing	-11679
▁Stupid	-11680
▁assert	-11681
▁banter	-11682
▁filler	-11683
▁firing	-11684
▁newcom	-11685
▁perman	-11686
▁resear	-11687
▁revers	-11688
▁struct	-11689
▁Cushing	-11690
▁collaps	-11691
▁fishing	-11692
▁knocked	-11693
▁painter	-11694
▁Phillips	-11695
▁defeated	-11696
▁dressing	-11697
▁immature	-11698
▁lifeless	-11699
▁overlong	-11700
▁insurance	-11701
▁misfortun	-11702
▁uncertain	-11703
▁unrelated	-11704
▁admittedly	-11705
▁challenged	-11706
▁discussing	-11707
▁psychology	-11708
▁translated	-11709
▁inhabitants	-11710
▁transformed	-11711
▁heartwarming	-11712
Tw	-11713
gt	-11714
END	-11715
iki	-11716
jay	-11717
rob	-11718
typ	-11719
▁Dy	-11720
▁Os	-11721
eson	-11722
lord	-11723
rary	-11724
▁Hog	-11725
▁Las	-11726
▁Lor	-11727
▁Nat	-11728
Where	-11729
atman	-11730
comes	-11731
encer	-11732
uller	-11733
▁2005	-11734
▁Giov	-11735
▁Oper	-11736
▁Whit	-11737
▁bike	-11738
▁merc	-11739
▁pron	-11740
▁succ	-11741
▁tomb	-11742
arious	-11743
incarn	-11744
unless	-11745
▁Beast	-11746
▁Carey	-11747
▁State	-11748
▁artic	-11749
▁diver	-11750
▁paran	-11751
▁route	-11752
▁slimy	-11753
▁unsus	-11754
fetched	-11755
ilation	-11756
nothing	-11757
special	-11758
▁Always	-11759
▁Boston	-11760
▁Danger	-11761
▁Dudley	-11762
▁Native	-11763
▁Portug	-11764
▁Purple	-11765
▁Regard	-11766
▁asylum	-11767
▁exceed	-11768
▁margin	-11769
▁rapist	-11770
▁remade	-11771
▁retire	-11772
▁select	-11773
▁steady	-11774
▁wander	-11775
▁Corbett	-11776
▁Loretta	-11777
▁butcher	-11778
▁fathers	-11779
▁marries	-11780
▁prepare	-11781
▁screwed	-11782
▁shorter	-11783
▁tempted	-11784
▁Christie	-11785
▁Guinness	-11786
▁Pickford	-11787
▁claiming	-11788
▁delicate	-11789
▁programs	-11790
▁recycled	-11791
▁shopping	-11792
▁stumbles	-11793
▁Valentine	-11794
▁acclaimed	-11795
▁blatantly	-11796
▁completed	-11797
▁departure	-11798
▁glamorous	-11799
▁paintings	-11800
▁similarly	-11801
▁Cassavetes	-11802
▁Enterprise	-11803
▁additional	-11804
▁definitive	-11805
▁inevitably	-11806
▁phenomenon	-11807
▁differently	-11808
▁demonstrates	-11809
▁recognizable	-11810
Or	-11811
ATH	-11812
IDE	-11813
oqu	-11814
rup	-11815
voc	-11816
▁HU	-11817
▁SG	-11818
▁Sa	-11819
apid	-11820
elic	-11821
geon	-11822
izer	-11823
oler	-11824
quin	-11825
rand	-11826
tick	-11827
ulse	-11828
unga	-11829
usty	-11830
▁Bug	-11831
▁COM	-11832
▁FIL	-11833
▁Ins	-11834
▁Yok	-11835
▁ans	-11836
▁cos	-11837
▁dow	-11838
▁lic	-11839
▁lux	-11840
▁pie	-11841
heads	-11842
irsty	-11843
olden	-11844
onent	-11845
uters	-11846
▁Camb	-11847
▁Gina	-11848
▁Gram	-11849
▁Lenn	-11850
▁Malt	-11851
▁Prom	-11852
▁Room	-11853
▁apes	-11854
▁brat	-11855
▁estr	-11856
▁plag	-11857
▁rail	-11858
▁skit	-11859
▁solo	-11860
▁vice	-11861
bourne	-11862
quette	-11863
walker	-11864
▁Awful	-11865
▁Bacon	-11866
▁Color	-11867
▁Games	-11868
▁Olymp	-11869
▁Rosen	-11870
▁Trier	-11871
▁boxer	-11872
▁casts	-11873
▁fluid	-11874
▁hides	-11875
▁messy	-11876
▁newer	-11877
▁skept	-11878
▁uncut	-11879
▁voted	-11880
sworthy	-11881
▁Savage	-11882
▁Wilder	-11883
▁agency	-11884
▁charms	-11885
▁crazed	-11886
▁debate	-11887
▁framed	-11888
▁garden	-11889
▁layers	-11890
▁liners	-11891
▁meteor	-11892
▁outlaw	-11893
▁pedest	-11894
▁sooner	-11895
▁stairs	-11896
▁trials	-11897
▁unseen	-11898
▁Affleck	-11899
▁Running	-11900
▁edition	-11901
▁energet	-11902
▁handles	-11903
▁melting	-11904
▁praised	-11905
▁sending	-11906
▁surgery	-11907
▁ambition	-11908
▁comprehe	-11909
▁employed	-11910
▁husbands	-11911
▁internal	-11912
▁judgment	-11913
▁neurotic	-11914
▁rendered	-11915
▁thrilled	-11916
▁housewife	-11917
▁ingenious	-11918
▁preferred	-11919
▁publicity	-11920
▁repeating	-11921
▁Timberlake	-11922
▁acceptance	-11923
▁accurately	-11924
▁cartoonish	-11925
▁controlled	-11926
▁insightful	-11927
▁underneath	-11928
▁Chamberlain	-11929
▁Goldsworthy	-11930
▁authorities	-11931
▁connections	-11932
▁continually	-11933
▁inexplicable	-11934
▁assassination	-11935
▁investigating	-11936
▁claustrophobic	-11937
.).	-11938
UST	-11939
har	-11940
haw	-11941
vyn	-11942
yet	-11943
Dark	-11944
aise	-11945
ikes	-11946
inds	-11947
runs	-11948
umes	-11949
▁Bab	-11950
▁Ble	-11951
▁Bos	-11952
▁DeM	-11953
▁Len	-11954
▁Paz	-11955
▁rig	-11956
▁tab	-11957
▁tip	-11958
▁wax	-11959
Frank	-11960
along	-11961
chair	-11962
enson	-11963
eting	-11964
hetti	-11965
omber	-11966
rings	-11967
still	-11968
▁AIDS	-11969
▁Beth	-11970
▁Buff	-11971
▁Cany	-11972
▁Drey	-11973
▁Main	-11974
▁Vill	-11975
▁Winc	-11976
▁bast	-11977
▁grin	-11978
▁musc	-11979
▁rabb	-11980
▁rope	-11981
▁wire	-11982
▁Boyer	-11983
▁Kazan	-11984
▁Lukas	-11985
▁Robot	-11986
▁Stack	-11987
▁Today	-11988
▁deriv	-11989
▁femme	-11990
▁hangs	-11991
▁macho	-11992
▁spree	-11993
▁vital	-11994
amiliar	-11995
imation	-11996
ortions	-11997
ulating	-11998
▁Actors	-11999
▁Beauty	-12000
▁chorus	-12001
▁farmer	-12002
▁firmly	-12003
▁infant	-12004
▁nights	-12005
▁obtain	-12006
▁refuse	-12007
▁remove	-12008
▁sorely	-12009
▁Country	-12010
▁Gilliam	-12011
▁Kolchak	-12012
▁Lindsay	-12013
▁Ritchie	-12014
▁assured	-12015
▁conduct	-12016
▁deleted	-12017
▁enhance	-12018
▁preachy	-12019
▁punches	-12020
▁serving	-12021
▁warming	-12022
irlfriend	-12023
▁Horrible	-12024
▁clueless	-12025
▁concepts	-12026
▁duration	-12027
▁elevator	-12028
▁forgiven	-12029
▁insanity	-12030
▁midnight	-12031
▁needless	-12032
▁outdated	-12033
▁outright	-12034
▁Character	-12035
▁Paramount	-12036
▁disgusted	-12037
▁nightclub	-12038
▁uniformly	-12039
▁commenting	-12040
▁threatened	-12041
▁predecessor	-12042
OK	-12043
Pr	-12044
Tr	-12045
flu	-12046
gio	-12047
oda	-12048
olo	-12049
wer	-12050
zes	-12051
▁"1	-12052
▁AM	-12053
▁Zh	-12054
▁eg	-12055
Hara	-12056
arks	-12057
aron	-12058
asha	-12059
blum	-12060
bral	-12061
comp	-12062
deal	-12063
dest	-12064
enez	-12065
iard	-12066
olis	-12067
otti	-12068
owed	-12069
oyle	-12070
roit	-12071
west	-12072
▁BSG	-12073
▁Gay	-12074
▁Hig	-12075
▁Jar	-12076
▁Jol	-12077
▁Mau	-12078
▁Nap	-12079
▁egg	-12080
comed	-12081
gener	-12082
inous	-12083
isted	-12084
lucky	-12085
quire	-12086
rophe	-12087
▁Fido	-12088
▁Know	-12089
▁Scor	-12090
▁Shin	-12091
▁Viol	-12092
▁deny	-12093
▁dope	-12094
▁echo	-12095
▁ghet	-12096
▁info	-12097
▁laun	-12098
▁seam	-12099
▁unem	-12100
▁vign	-12101
ainted	-12102
driven	-12103
ermaid	-12104
family	-12105
mostly	-12106
umming	-12107
▁Bland	-12108
▁Crazy	-12109
▁Creat	-12110
▁Giant	-12111
▁Speed	-12112
▁Stock	-12113
▁disci	-12114
▁dwell	-12115
▁mirac	-12116
▁mummy	-12117
▁seedy	-12118
▁setup	-12119
▁swing	-12120
▁token	-12121
emetery	-12122
eworthy	-12123
iblical	-12124
ielding	-12125
iseries	-12126
playing	-12127
▁Canyon	-12128
▁Hadley	-12129
▁Huston	-12130
▁League	-12131
▁Marlon	-12132
▁ancest	-12133
▁barrel	-12134
▁boasts	-12135
▁disreg	-12136
▁fetish	-12137
▁giallo	-12138
▁insomn	-12139
▁motive	-12140
▁societ	-12141
▁static	-12142
▁Emperor	-12143
▁Mathieu	-12144
▁Shining	-12145
▁Soldier	-12146
▁Toronto	-12147
▁academy	-12148
▁grounds	-12149
▁helpful	-12150
▁natives	-12151
▁physics	-12152
▁rooting	-12153
▁Charlton	-12154
▁Harrison	-12155
▁brooding	-12156
▁centered	-12157
▁dazzling	-12158
▁immortal	-12159
▁mistress	-12160
▁speeches	-12161
▁suburban	-12162
▁symbolic	-12163
▁youthful	-12164
production	-12165
▁Armstrong	-12166
▁Fishburne	-12167
▁Knightley	-12168
▁astronaut	-12169
▁backwards	-12170
▁deserving	-12171
▁evolution	-12172
▁exploring	-12173
▁isolation	-12174
▁justified	-12175
▁realities	-12176
▁specially	-12177
▁approaches	-12178
▁disastrous	-12179
▁guaranteed	-12180
▁mannerisms	-12181
▁miniseries	-12182
▁suggestion	-12183
▁comparisons	-12184
Ke	-12185
UE	-12186
DER	-12187
ORY	-12188
cal	-12189
has	-12190
uke	-12191
▁ly	-12192
Mart	-12193
inks	-12194
ixar	-12195
lime	-12196
nger	-12197
tery	-12198
vial	-12199
word	-12200
▁"10	-12201
▁Bry	-12202
▁Exp	-12203
▁Few	-12204
▁Mam	-12205
▁WHO	-12206
▁hij	-12207
▁neo	-12208
aints	-12209
alker	-12210
arios	-12211
erner	-12212
gency	-12213
guard	-12214
ieves	-12215
ulent	-12216
ussie	-12217
▁Clay	-12218
▁Cros	-12219
▁FILM	-12220
▁Gang	-12221
▁Happ	-12222
▁Milo	-12223
▁bulk	-12224
▁buzz	-12225
▁pour	-12226
▁vary	-12227
▁vile	-12228
inator	-12229
irties	-12230
moving	-12231
ortant	-12232
rating	-12233
▁Bates	-12234
▁Bunny	-12235
▁Gable	-12236
▁Light	-12237
▁Mason	-12238
▁Worse	-12239
▁decap	-12240
▁incon	-12241
▁nails	-12242
▁niece	-12243
▁pecul	-12244
▁scrap	-12245
▁squad	-12246
▁sugar	-12247
▁votes	-12248
atement	-12249
▁Audrey	-12250
▁Awards	-12251
▁Truman	-12252
▁Warhol	-12253
▁circus	-12254
▁ladder	-12255
▁modest	-12256
▁refers	-12257
▁subtly	-12258
▁topics	-12259
▁Clearly	-12260
▁Kathryn	-12261
▁McQueen	-12262
▁Nicolas	-12263
▁affects	-12264
▁artwork	-12265
▁compete	-12266
▁coupled	-12267
▁entered	-12268
▁fulfill	-12269
▁healthy	-12270
▁inspire	-12271
▁percent	-12272
▁records	-12273
▁samurai	-12274
▁someday	-12275
▁sublime	-12276
▁subtext	-12277
▁wanders	-12278
▁Goldblum	-12279
▁activity	-12280
▁addicted	-12281
▁destined	-12282
▁grateful	-12283
▁Alexandre	-12284
▁acknowled	-12285
▁camcorder	-12286
▁demanding	-12287
▁organized	-12288
▁partially	-12289
▁satirical	-12290
▁transform	-12291
▁Revolution	-12292
▁engrossing	-12293
▁relentless	-12294
▁restrained	-12295
▁suspension	-12296
▁unlikeable	-12297
EP	-12298
ICK	-12299
eer	-12300
hop	-12301
hot	-12302
▁AD	-12303
ALLY	-12304
aggy	-12305
bill	-12306
gles	-12307
iami	-12308
note	-12309
orey	-12310
▁Clo	-12311
▁Der	-12312
▁Fat	-12313
▁Joy	-12314
▁Liu	-12315
▁Loc	-12316
▁MAD	-12317
▁Pas	-12318
▁Sty	-12319
▁Tot	-12320
▁Vol	-12321
▁nit	-12322
epend	-12323
ipper	-12324
obile	-12325
ourse	-12326
owulf	-12327
ypher	-12328
▁*1/2	-12329
▁2004	-12330
▁Cain	-12331
▁Cort	-12332
▁Kung	-12333
▁Name	-12334
▁Shot	-12335
▁Wish	-12336
▁craz	-12337
▁curt	-12338
▁deem	-12339
▁hust	-12340
▁lend	-12341
▁lock	-12342
▁omin	-12343
▁slip	-12344
▁tops	-12345
▁turd	-12346
▁wolf	-12347
normal	-12348
placed	-12349
▁Apple	-12350
▁Brain	-12351
▁Errol	-12352
▁Fever	-12353
▁Order	-12354
▁Sleep	-12355
▁bully	-12356
▁hires	-12357
▁lasts	-12358
▁males	-12359
▁mercy	-12360
▁peril	-12361
▁stare	-12362
▁whats	-12363
.......	-12364
achelor	-12365
idelity	-12366
ulously	-12367
veheart	-12368
▁Behind	-12369
▁Harlow	-12370
▁Nights	-12371
▁athlet	-12372
▁emerge	-12373
▁flashy	-12374
▁gained	-12375
▁hugely	-12376
▁legacy	-12377
▁neatly	-12378
▁smiles	-12379
▁weaker	-12380
▁Actress	-12381
▁Cinemat	-12382
▁Georges	-12383
▁Melissa	-12384
▁Parsons	-12385
▁anyways	-12386
▁corpses	-12387
▁crashes	-12388
▁damaged	-12389
▁dubious	-12390
▁earnest	-12391
▁factors	-12392
▁injured	-12393
▁mothers	-12394
▁rapidly	-12395
▁shaking	-12396
▁sharing	-12397
▁trivial	-12398
▁visions	-12399
▁weather	-12400
▁windows	-12401
▁Lifetime	-12402
▁Randolph	-12403
▁critique	-12404
▁destroys	-12405
▁disorder	-12406
▁exploits	-12407
▁survives	-12408
ologically	-12409
▁Christine	-12410
▁Masterson	-12411
▁computers	-12412
▁preparing	-12413
▁repulsive	-12414
▁strengths	-12415
sympathetic	-12416
▁compliment	-12417
▁describing	-12418
▁perception	-12419
▁politician	-12420
▁limitations	-12421
▁nominations	-12422
▁contribution	-12423
AG	-12424
GH	-12425
Pe	-12426
ev	-12427
ua	-12428
!",	-12429
asi	-12430
eks	-12431
fig	-12432
gud	-12433
imo	-12434
lad	-12435
lay	-12436
mus	-12437
umi	-12438
uta	-12439
xic	-12440
▁GO	-12441
▁Ut	-12442
Dead	-12443
abre	-12444
atti	-12445
avin	-12446
dele	-12447
eted	-12448
grid	-12449
isle	-12450
moil	-12451
noir	-12452
ooke	-12453
tale	-12454
▁DID	-12455
▁Fun	-12456
▁Hum	-12457
▁Kra	-12458
▁Moe	-12459
▁Ric	-12460
▁apt	-12461
▁gam	-12462
▁goo	-12463
▁kar	-12464
▁sou	-12465
*****	-12466
cends	-12467
cheek	-12468
ester	-12469
iffer	-12470
istol	-12471
overs	-12472
super	-12473
urman	-12474
▁Cool	-12475
▁Judd	-12476
▁Surv	-12477
▁Test	-12478
▁barb	-12479
▁belt	-12480
▁bree	-12481
▁clin	-12482
▁item	-12483
▁leth	-12484
▁monk	-12485
▁narc	-12486
▁poll	-12487
▁yard	-12488
George	-12489
headle	-12490
innear	-12491
orters	-12492
▁Burke	-12493
▁Party	-12494
▁Reeve	-12495
▁hitch	-12496
▁insec	-12497
▁masks	-12498
▁spine	-12499
William	-12500
busters	-12501
iblings	-12502
umental	-12503
▁Conrad	-12504
▁Crosby	-12505
▁Ingrid	-12506
▁PLEASE	-12507
▁Whilst	-12508
▁billed	-12509
▁centre	-12510
▁formed	-12511
▁frames	-12512
▁growth	-12513
▁handic	-12514
▁region	-12515
▁retrie	-12516
▁statue	-12517
▁supply	-12518
▁thrust	-12519
▁unsure	-12520
▁Frankly	-12521
▁depends	-12522
▁doctors	-12523
▁inspect	-12524
▁insults	-12525
▁mirrors	-12526
▁quarter	-12527
▁ripping	-12528
▁schools	-12529
▁sinking	-12530
▁turmoil	-12531
▁Einstein	-12532
▁dropping	-12533
▁entering	-12534
▁entirety	-12535
▁headache	-12536
▁hilarity	-12537
▁reincarn	-12538
▁convinces	-12539
▁energetic	-12540
▁exquisite	-12541
▁referring	-12542
▁testament	-12543
▁Ironically	-12544
▁accessible	-12545
▁advertised	-12546
▁colleagues	-12547
▁confronted	-12548
▁containing	-12549
▁inaccurate	-12550
▁misfortune	-12551
▁masterfully	-12552
▁mesmerizing	-12553
▁photographs	-12554
▁unsuspecting	-12555
▁unimaginative	-12556
En	-12557
fr	-12558
ko	-12559
Big	-12560
ERT	-12561
OUN	-12562
Pol	-12563
Yes	-12564
ded	-12565
dep	-12566
doc	-12567
una	-12568
▁CL	-12569
agle	-12570
ahan	-12571
buck	-12572
cool	-12573
ilia	-12574
kill	-12575
thon	-12576
▁CBS	-12577
▁Cos	-12578
▁Fil	-12579
▁Hou	-12580
▁OUT	-12581
▁coc	-12582
▁huh	-12583
Lewis	-12584
adium	-12585
ammer	-12586
anche	-12587
antha	-12588
arker	-12589
arrot	-12590
asket	-12591
aurie	-12592
berry	-12593
esque	-12594
essed	-12595
hilar	-12596
liest	-12597
owned	-12598
pense	-12599
pling	-12600
stood	-12601
ufact	-12602
▁Alas	-12603
▁Dumb	-12604
▁Jill	-12605
▁Luci	-12606
▁Marx	-12607
▁Mask	-12608
▁Rush	-12609
▁Thor	-12610
▁abdu	-12611
▁dont	-12612
▁foil	-12613
▁owes	-12614
▁sale	-12615
▁smug	-12616
▁synd	-12617
▁unsc	-12618
asting	-12619
ennett	-12620
hanger	-12621
leased	-12622
orcist	-12623
outhed	-12624
ugging	-12625
▁Colin	-12626
▁Fried	-12627
▁Frost	-12628
▁Lance	-12629
▁Meyer	-12630
▁Naked	-12631
▁Paula	-12632
▁Pitch	-12633
▁Thats	-12634
▁artsy	-12635
▁bible	-12636
▁error	-12637
▁glued	-12638
▁mayor	-12639
▁spies	-12640
inction	-12641
usively	-12642
version	-12643
▁Adrian	-12644
▁Danish	-12645
▁Lennon	-12646
▁Potter	-12647
▁Salman	-12648
▁Spider	-12649
▁blacks	-12650
▁fatale	-12651
▁guards	-12652
▁landed	-12653
▁nerves	-12654
▁tossed	-12655
▁vastly	-12656
▁Carlito	-12657
▁Company	-12658
▁Cunning	-12659
▁Mitchum	-12660
▁Muppets	-12661
▁Rangers	-12662
▁Vanessa	-12663
▁Written	-12664
▁airport	-12665
▁dilemma	-12666
▁lasting	-12667
▁located	-12668
▁puppets	-12669
▁vividly	-12670
fashioned	-12671
itionally	-12672
▁Moreover	-12673
▁Werewolf	-12674
▁abruptly	-12675
▁cracking	-12676
▁eventual	-12677
▁exterior	-12678
▁landmark	-12679
▁promptly	-12680
▁sticking	-12681
▁stopping	-12682
▁triangle	-12683
▁vehicles	-12684
ographical	-12685
▁crocodile	-12686
▁residents	-12687
▁sincerely	-12688
▁underwear	-12689
▁derivative	-12690
▁institution	-12691
▁millionaire	-12692
/5	-12693
CR	-12694
Ben	-12695
axy	-12696
odd	-12697
▁2"	-12698
▁23	-12699
▁ol	-12700
Love	-12701
anti	-12702
ardo	-12703
borg	-12704
edge	-12705
eler	-12706
esar	-12707
esse	-12708
high	-12709
idan	-12710
impy	-12711
obia	-12712
opic	-12713
rita	-12714
ware	-12715
yman	-12716
▁Bil	-12717
▁Dur	-12718
▁Gos	-12719
▁Hob	-12720
▁Jaf	-12721
▁Leg	-12722
▁Mah	-12723
▁Non	-12724
▁Raw	-12725
▁TIM	-12726
▁Tow	-12727
▁lam	-12728
▁poo	-12729
genre	-12730
ierre	-12731
iture	-12732
keley	-12733
unker	-12734
▁9/11	-12735
▁Anil	-12736
▁Boss	-12737
▁Gypo	-12738
▁Mend	-12739
▁Prot	-12740
▁Tara	-12741
▁Wong	-12742
▁akin	-12743
▁babe	-12744
▁bars	-12745
▁bent	-12746
▁buys	-12747
▁chem	-12748
▁debt	-12749
▁hoot	-12750
▁hott	-12751
▁lean	-12752
▁ling	-12753
▁mour	-12754
▁owns	-12755
▁pals	-12756
▁shoe	-12757
▁tent	-12758
Little	-12759
almost	-12760
engers	-12761
lights	-12762
shadow	-12763
wolves	-12764
▁Bruno	-12765
▁Caron	-12766
▁Denis	-12767
▁Dreyf	-12768
▁Dylan	-12769
▁Going	-12770
▁Jared	-12771
▁Mouse	-12772
▁Pixar	-12773
▁Train	-12774
▁belly	-12775
▁blunt	-12776
▁cents	-12777
▁cohes	-12778
▁cries	-12779
▁dates	-12780
▁fraud	-12781
▁pione	-12782
▁poker	-12783
▁schol	-12784
▁smugg	-12785
entinel	-12786
▁Capote	-12787
▁Mostly	-12788
▁Simple	-12789
▁Valley	-12790
▁depths	-12791
▁dismal	-12792
▁drinks	-12793
▁festiv	-12794
▁hungry	-12795
produced	-12796
▁Diamond	-12797
▁Hackman	-12798
▁Machine	-12799
▁Pacific	-12800
▁Wedding	-12801
▁affairs	-12802
▁cheaply	-12803
▁chicken	-12804
▁cinemas	-12805
▁colours	-12806
▁dashing	-12807
▁demonic	-12808
▁demonst	-12809
▁eternal	-12810
▁expects	-12811
▁inflict	-12812
▁jarring	-12813
▁leather	-12814
▁melanch	-12815
▁proving	-12816
▁sensual	-12817
▁supreme	-12818
▁Patricia	-12819
▁advertis	-12820
▁answered	-12821
▁cerebral	-12822
▁conveyed	-12823
▁insights	-12824
▁invasion	-12825
▁reliable	-12826
▁reminder	-12827
▁resolved	-12828
▁scariest	-12829
▁servants	-12830
▁siblings	-12831
▁spirited	-12832
▁standout	-12833
▁Invisible	-12834
▁courtroom	-12835
▁decidedly	-12836
▁disguised	-12837
▁endlessly	-12838
▁identical	-12839
▁incapable	-12840
▁separated	-12841
▁spectacle	-12842
▁tormented	-12843
▁Cunningham	-12844
▁Supporting	-12845
▁caricature	-12846
▁improbable	-12847
▁passengers	-12848
▁stunningly	-12849
▁undeniably	-12850
▁concentrate	-12851
▁demonstrate	-12852
▁devastating	-12853
▁expectation	-12854
▁authenticity	-12855
▁unattractive	-12856
▁inspirational	-12857
▁characteristics	-12858
EY	-12859
Su	-12860
UD	-12861
uy	-12862
?".	-12863
Che	-12864
IVE	-12865
OTH	-12866
ags	-12867
etc	-12868
omy	-12869
zzy	-12870
▁75	-12871
ecut	-12872
emen	-12873
math	-12874
mund	-12875
obby	-12876
ules	-12877
unks	-12878
wide	-12879
▁ARE	-12880
▁Gre	-12881
▁Kam	-12882
▁Sor	-12883
▁Uma	-12884
▁Voy	-12885
▁beg	-12886
▁bug	-12887
▁cue	-12888
▁dil	-12889
▁gor	-12890
ammed	-12891
amped	-12892
arest	-12893
banks	-12894
cript	-12895
isode	-12896
olved	-12897
raged	-12898
sored	-12899
▁Asia	-12900
▁Barn	-12901
▁Blob	-12902
▁Gone	-12903
▁HAVE	-12904
▁Lead	-12905
▁MUCH	-12906
▁Mall	-12907
▁Sond	-12908
▁Visc	-12909
▁YOUR	-12910
▁chim	-12911
▁dism	-12912
▁fuel	-12913
▁pill	-12914
▁pump	-12915
athing	-12916
before	-12917
binder	-12918
intage	-12919
ocking	-12920
utions	-12921
▁Boris	-12922
▁Flash	-12923
▁Happy	-12924
▁Hindi	-12925
▁Kitty	-12926
▁Polly	-12927
▁Ratso	-12928
▁blues	-12929
▁crisp	-12930
▁disin	-12931
▁heels	-12932
▁lunch	-12933
▁nerve	-12934
▁quint	-12935
▁shell	-12936
▁teams	-12937
▁whiny	-12938
aghetti	-12939
ignific	-12940
▁Laurie	-12941
▁Puerto	-12942
▁Ronald	-12943
▁Sebast	-12944
▁beside	-12945
▁bitten	-12946
▁ensure	-12947
▁flimsy	-12948
▁puzzle	-12949
▁sought	-12950
▁wounds	-12951
▁yellow	-12952
iterally	-12953
iverance	-12954
▁Antonio	-12955
▁Beverly	-12956
▁Eastern	-12957
▁Garland	-12958
▁Kinnear	-12959
▁Quentin	-12960
▁appeals	-12961
▁arguing	-12962
▁buffalo	-12963
▁chopped	-12964
▁cliches	-12965
▁complet	-12966
▁constra	-12967
▁decline	-12968
▁descent	-12969
▁discern	-12970
▁flashes	-12971
▁glaring	-12972
▁implied	-12973
▁inherit	-12974
▁literal	-12975
▁longing	-12976
▁naughty	-12977
▁neglect	-12978
▁pattern	-12979
▁pronoun	-12980
▁raising	-12981
▁regards	-12982
▁stardom	-12983
▁studies	-12984
hetically	-12985
▁Sentinel	-12986
▁Twilight	-12987
▁accounts	-12988
▁cemetery	-12989
▁combines	-12990
▁crashing	-12991
▁disabled	-12992
▁divorced	-12993
▁enhanced	-12994
▁pleasing	-12995
▁promoted	-12996
▁sometime	-12997
▁stranded	-12998
▁wardrobe	-12999
▁convicted	-13000
▁estranged	-13001
▁published	-13002
▁repressed	-13003
▁scarecrow	-13004
▁Admittedly	-13005
▁comprehend	-13006
▁contribute	-13007
▁meandering	-13008
▁noticeable	-13009
▁principals	-13010
▁widescreen	-13011
▁approaching	-13012
▁excellently	-13013
▁enthusiastic	-13014
▁tremendously	-13015
▁homosexuality	-13016
-9	-13017
Am	-13018
CM	-13019
Fl	-13020
KS	-13021
Se	-13022
mn	-13023
oj	-13024
.),	-13025
Col	-13026
ieg	-13027
pah	-13028
▁'8	-13029
Lost	-13030
Rock	-13031
Some	-13032
anca	-13033
anth	-13034
fman	-13035
iana	-13036
rica	-13037
rops	-13038
your	-13039
zech	-13040
▁Bed	-13041
▁HOW	-13042
▁Lin	-13043
▁Tap	-13044
atoes	-13045
later	-13046
olini	-13047
ombie	-13048
ounty	-13049
sorry	-13050
▁Bras	-13051
▁Card	-13052
▁DOES	-13053
▁Duch	-13054
▁Fass	-13055
▁Hale	-13056
▁Isab	-13057
▁Knox	-13058
▁Lass	-13059
▁MUST	-13060
▁Mick	-13061
▁Poll	-13062
▁Sara	-13063
▁Toby	-13064
▁Work	-13065
▁avid	-13066
▁coff	-13067
▁conj	-13068
▁duck	-13069
▁hers	-13070
▁lion	-13071
▁melt	-13072
▁poke	-13073
▁trop	-13074
ailing	-13075
ocracy	-13076
onents	-13077
rected	-13078
sexual	-13079
▁Beach	-13080
▁Bloom	-13081
▁Bride	-13082
▁Clare	-13083
▁Creep	-13084
▁Fight	-13085
▁Irene	-13086
▁Kings	-13087
▁Mabel	-13088
▁Tokyo	-13089
▁advis	-13090
▁goals	-13091
▁goods	-13092
▁owned	-13093
▁plate	-13094
▁vigil	-13095
enezuel	-13096
without	-13097
▁Casper	-13098
▁Evelyn	-13099
▁Gentle	-13100
▁Govern	-13101
▁Pumbaa	-13102
▁Sophie	-13103
▁advers	-13104
▁babies	-13105
▁copied	-13106
▁expose	-13107
▁morals	-13108
▁patron	-13109
▁washed	-13110
▁Citizen	-13111
▁Frances	-13112
▁Harriet	-13113
▁Natalie	-13114
▁Pokemon	-13115
▁Sanders	-13116
▁Theatre	-13117
▁Thurman	-13118
▁budgets	-13119
▁constit	-13120
▁motorcy	-13121
▁ominous	-13122
▁outline	-13123
▁rescued	-13124
▁strings	-13125
▁worship	-13126
▁Berkeley	-13127
▁Children	-13128
▁Hayworth	-13129
▁Minnelli	-13130
▁assuming	-13131
▁choosing	-13132
▁eternity	-13133
▁peculiar	-13134
▁resulted	-13135
▁selected	-13136
▁sensible	-13137
▁switched	-13138
▁tendency	-13139
▁theories	-13140
▁Following	-13141
▁Robertson	-13142
▁absorbing	-13143
▁attacking	-13144
▁breakdown	-13145
▁depending	-13146
▁intricate	-13147
▁parallels	-13148
▁Fassbinder	-13149
▁filmmaking	-13150
▁underworld	-13151
▁unconscious	-13152
▁experiencing	-13153
▁unsatisfying	-13154
▁sentimentality	-13155
Ed	-13156
Ex	-13157
NY	-13158
hh	-13159
▁	-13160
ARE	-13161
Her	-13162
cas	-13163
cca	-13164
roe	-13165
rug	-13166
saw	-13167
tal	-13168
ère	-13169
▁('	-13170
▁).	-13171
▁PC	-13172
▁PO	-13173
▁WE	-13174
====	-13175
amin	-13176
avan	-13177
bbie	-13178
fers	-13179
hole	-13180
imon	-13181
omei	-13182
omic	-13183
onti	-13184
usey	-13185
▁Ass	-13186
▁Cop	-13187
▁END	-13188
▁McN	-13189
▁Mem	-13190
▁NBC	-13191
▁Nik	-13192
▁Toy	-13193
andon	-13194
atile	-13195
▁2003	-13196
▁Away	-13197
▁Barr	-13198
▁Berk	-13199
▁Born	-13200
▁Crim	-13201
▁DVDs	-13202
▁Mast	-13203
▁Nina	-13204
▁Teen	-13205
▁WILL	-13206
▁liqu	-13207
▁slee	-13208
▁wash	-13209
actica	-13210
dyssey	-13211
ielgud	-13212
igious	-13213
phanie	-13214
ridden	-13215
veyard	-13216
▁Blunt	-13217
▁Bravo	-13218
▁Curly	-13219
▁Erika	-13220
▁Hawai	-13221
▁Heath	-13222
▁Jules	-13223
▁Leave	-13224
▁Niven	-13225
▁Often	-13226
▁Timmy	-13227
▁adopt	-13228
▁adore	-13229
▁alert	-13230
▁apply	-13231
▁babys	-13232
▁jaded	-13233
▁ninja	-13234
▁races	-13235
▁rainy	-13236
▁rides	-13237
▁tapes	-13238
bearing	-13239
esquire	-13240
▁Aussie	-13241
▁Carmen	-13242
▁Deanna	-13243
▁Gerald	-13244
▁Hannah	-13245
▁Hidden	-13246
▁Muppet	-13247
▁Sydney	-13248
▁classy	-13249
▁eleven	-13250
▁extrav	-13251
▁freaks	-13252
▁ghetto	-13253
▁hollow	-13254
▁impecc	-13255
▁insect	-13256
▁insuff	-13257
▁lavish	-13258
▁midget	-13259
▁mixing	-13260
▁pocket	-13261
▁pursue	-13262
▁racing	-13263
▁stroke	-13264
▁traits	-13265
▁undead	-13266
▁wisely	-13267
▁Private	-13268
▁Spencer	-13269
▁degener	-13270
▁diverse	-13271
▁embrace	-13272
▁fanatic	-13273
▁fragile	-13274
▁inmates	-13275
▁passage	-13276
▁readers	-13277
▁reports	-13278
▁scandal	-13279
▁seeming	-13280
▁shining	-13281
▁whining	-13282
▁Arquette	-13283
▁Original	-13284
▁Samantha	-13285
▁Together	-13286
▁canceled	-13287
▁crippled	-13288
▁cultures	-13289
▁expertly	-13290
▁peaceful	-13291
▁plotting	-13292
▁proclaim	-13293
▁prosecut	-13294
▁prospect	-13295
▁stalking	-13296
▁swearing	-13297
enaissance	-13298
▁accepting	-13299
▁assembled	-13300
▁delicious	-13301
▁delighted	-13302
▁inconsist	-13303
▁overblown	-13304
▁rewarding	-13305
▁sarcastic	-13306
▁suspected	-13307
▁approached	-13308
▁astounding	-13309
▁deliberate	-13310
▁rebellious	-13311
▁indifferent	-13312
▁demonstrated	-13313
▁consideration	-13314
▁excruciatingly	-13315
)?	-13316
Je	-13317
Me	-13318
ANG	-13319
Eng	-13320
ISS	-13321
Men	-13322
Mid	-13323
Ret	-13324
ggy	-13325
lli	-13326
lma	-13327
mid	-13328
opp	-13329
umn	-13330
▁SW	-13331
▁hi	-13332
chet	-13333
educ	-13334
empl	-13335
isia	-13336
know	-13337
odes	-13338
osal	-13339
rish	-13340
unte	-13341
urbi	-13342
▁300	-13343
▁Boo	-13344
▁Cro	-13345
▁Fal	-13346
▁Lil	-13347
▁Pfe	-13348
▁err	-13349
▁jet	-13350
elope	-13351
falls	-13352
gence	-13353
ieval	-13354
immer	-13355
inian	-13356
odder	-13357
ymour	-13358
▁Fors	-13359
▁Hans	-13360
▁Hulk	-13361
▁Keep	-13362
▁Mack	-13363
▁Vega	-13364
▁angu	-13365
▁chat	-13366
▁doom	-13367
▁drew	-13368
▁salv	-13369
▁synt	-13370
advert	-13371
ciless	-13372
insale	-13373
osedly	-13374
▁Agent	-13375
▁Break	-13376
▁Chiba	-13377
▁Czech	-13378
▁Fairy	-13379
▁Jenna	-13380
▁Judge	-13381
▁Outer	-13382
▁Phoen	-13383
▁Troma	-13384
▁bombs	-13385
▁climb	-13386
▁crank	-13387
▁crown	-13388
▁daddy	-13389
▁drill	-13390
▁fills	-13391
▁moron	-13392
▁phase	-13393
▁trace	-13394
fiction	-13395
quality	-13396
▁Boring	-13397
▁Cambod	-13398
▁Iturbi	-13399
▁Lauren	-13400
▁aiming	-13401
▁approx	-13402
▁autobi	-13403
▁bewild	-13404
▁bureau	-13405
▁define	-13406
▁incarn	-13407
▁knocks	-13408
▁mouths	-13409
▁mutual	-13410
▁subway	-13411
▁Cheadle	-13412
▁Gilbert	-13413
▁Samurai	-13414
▁Seymour	-13415
▁Shepard	-13416
▁begging	-13417
▁commits	-13418
▁compris	-13419
▁fifties	-13420
▁hateful	-13421
▁intertw	-13422
▁offbeat	-13423
▁origins	-13424
▁rampage	-13425
▁settled	-13426
▁Collette	-13427
▁Rowlands	-13428
▁Sarandon	-13429
▁Shanghai	-13430
▁Shepherd	-13431
▁Whenever	-13432
▁achieves	-13433
▁deterior	-13434
▁hardship	-13435
▁jealousy	-13436
▁massacre	-13437
▁minority	-13438
▁routines	-13439
▁salesman	-13440
▁survivor	-13441
▁Fairbanks	-13442
▁Schneider	-13443
▁Victorian	-13444
▁addiction	-13445
▁obsessive	-13446
▁remembers	-13447
▁tolerable	-13448
▁celebrated	-13449
▁collective	-13450
▁commitment	-13451
▁kidnapping	-13452
▁playwright	-13453
▁underwater	-13454
▁Interesting	-13455
▁anticipated	-13456
▁contributed	-13457
▁distraction	-13458
99	-13459
Go	-13460
da	-13461
▁>	-13462
▁£	-13463
Mon	-13464
Pat	-13465
ois	-13466
rek	-13467
▁(1	-13468
▁oo	-13469
conf	-13470
cons	-13471
enia	-13472
flix	-13473
oter	-13474
uder	-13475
▁Gig	-13476
▁Oak	-13477
▁sor	-13478
▁voc	-13479
Peter	-13480
ahmer	-13481
asses	-13482
chant	-13483
inkle	-13484
orous	-13485
ramer	-13486
rates	-13487
upert	-13488
urous	-13489
▁Deep	-13490
▁FROM	-13491
▁Fein	-13492
▁Hers	-13493
▁KNOW	-13494
▁Must	-13495
▁Pass	-13496
▁Seed	-13497
▁bush	-13498
▁coat	-13499
▁gray	-13500
▁loop	-13501
▁quot	-13502
erotic	-13503
market	-13504
ypical	-13505
▁Clara	-13506
▁Creek	-13507
▁Crist	-13508
▁Doyle	-13509
▁Jolie	-13510
▁Korea	-13511
▁McInt	-13512
▁Royal	-13513
▁Thorn	-13514
▁Tomei	-13515
▁catal	-13516
▁condu	-13517
▁dwarf	-13518
▁faint	-13519
▁havoc	-13520
▁horny	-13521
▁hypoc	-13522
▁kudos	-13523
▁ninet	-13524
▁packs	-13525
▁pause	-13526
▁poses	-13527
▁puppy	-13528
▁taped	-13529
▁unans	-13530
▁vomit	-13531
▁yours	-13532
otional	-13533
spiring	-13534
▁10/10.	-13535
▁Bogart	-13536
▁Fallon	-13537
▁Haines	-13538
▁Wizard	-13539
▁Wright	-13540
▁adjust	-13541
▁dealer	-13542
▁defies	-13543
▁flavor	-13544
▁impris	-13545
▁judged	-13546
▁pathos	-13547
▁policy	-13548
▁pushes	-13549
▁slaves	-13550
▁sleeps	-13551
ountered	-13552
▁Bridges	-13553
▁Clooney	-13554
▁Elliott	-13555
▁Georgia	-13556
▁Gielgud	-13557
▁Wendigo	-13558
▁admired	-13559
▁expense	-13560
▁fleshed	-13561
▁inexper	-13562
▁lighter	-13563
▁longest	-13564
▁nuances	-13565
▁popping	-13566
▁readily	-13567
▁rounded	-13568
▁skilled	-13569
▁slapped	-13570
▁updated	-13571
essential	-13572
▁Bachchan	-13573
▁Instinct	-13574
▁Longoria	-13575
▁McCarthy	-13576
▁Pfeiffer	-13577
▁Suddenly	-13578
▁acquired	-13579
▁airplane	-13580
▁cleaning	-13581
▁escaping	-13582
▁explodes	-13583
▁likewise	-13584
▁mystical	-13585
▁respects	-13586
▁romances	-13587
▁seasoned	-13588
▁shootout	-13589
▁arguments	-13590
▁attending	-13591
▁immigrant	-13592
▁monologue	-13593
▁possesses	-13594
▁redundant	-13595
▁regularly	-13596
▁reviewing	-13597
▁sickening	-13598
▁unwilling	-13599
▁Winchester	-13600
▁continuing	-13601
▁disrespect	-13602
▁optimistic	-13603
▁encountered	-13604
▁conveniently	-13605
▁dramatically	-13606
▁screenwriters	-13607
▁unsympathetic	-13608
!?	-13609
▁̈	-13610
ITE	-13611
ITY	-13612
New	-13613
OMB	-13614
Ray	-13615
Red	-13616
Tit	-13617
Too	-13618
amo	-13619
bon	-13620
gut	-13621
lan	-13622
owa	-13623
wic	-13624
▁4-	-13625
▁FE	-13626
feld	-13627
must	-13628
oots	-13629
oust	-13630
uber	-13631
uded	-13632
▁Bin	-13633
▁Bou	-13634
▁HOR	-13635
▁Ill	-13636
▁NOW	-13637
▁Pav	-13638
▁Que	-13639
▁Rid	-13640
▁Sue	-13641
▁dun	-13642
▁ost	-13643
Every	-13644
RIBLE	-13645
aputa	-13646
arted	-13647
athon	-13648
count	-13649
erity	-13650
icine	-13651
igans	-13652
ocaly	-13653
▁1920	-13654
▁Corn	-13655
▁Dest	-13656
▁Holy	-13657
▁Host	-13658
▁Luis	-13659
▁Toni	-13660
▁abst	-13661
▁drab	-13662
▁pomp	-13663
▁rear	-13664
▁tire	-13665
▁turt	-13666
antasm	-13667
isters	-13668
mented	-13669
owered	-13670
ployed	-13671
ulsion	-13672
▁Blade	-13673
▁Brent	-13674
▁Busey	-13675
▁Irons	-13676
▁Ricky	-13677
▁Throw	-13678
▁Zorro	-13679
▁aided	-13680
▁caret	-13681
▁denou	-13682
▁draft	-13683
▁overd	-13684
▁polar	-13685
▁ranch	-13686
▁sells	-13687
▁sober	-13688
▁swept	-13689
▁users	-13690
▁wider	-13691
cending	-13692
redited	-13693
▁Amrita	-13694
▁Gibson	-13695
▁Herman	-13696
▁Madsen	-13697
▁Psycho	-13698
▁archae	-13699
▁enlist	-13700
▁exempl	-13701
▁intact	-13702
▁marked	-13703
▁pirate	-13704
▁posing	-13705
▁scored	-13706
▁snakes	-13707
▁swords	-13708
▁wastes	-13709
▁wholes	-13710
▁Dominic	-13711
▁Herbert	-13712
▁Israeli	-13713
▁Million	-13714
▁Network	-13715
▁anxious	-13716
▁circles	-13717
▁excuses	-13718
▁masturb	-13719
▁missile	-13720
▁psyched	-13721
▁reverse	-13722
▁tourist	-13723
▁vintage	-13724
conceived	-13725
indulgent	-13726
▁Franklin	-13727
▁Westerns	-13728
▁adaption	-13729
▁attended	-13730
▁champion	-13731
▁crossing	-13732
▁elephant	-13733
▁employee	-13734
▁informed	-13735
▁produces	-13736
▁reviewed	-13737
▁stylized	-13738
▁Europeans	-13739
▁Notorious	-13740
▁aftermath	-13741
▁afterward	-13742
▁brainless	-13743
▁centuries	-13744
▁dominated	-13745
▁evidently	-13746
▁forbidden	-13747
▁gentleman	-13748
▁instances	-13749
▁instincts	-13750
▁invention	-13751
▁seductive	-13752
▁spaceship	-13753
▁Production	-13754
▁distracted	-13755
▁legitimate	-13756
▁phenomenal	-13757
▁statements	-13758
▁wheelchair	-13759
▁composition	-13760
▁intentional	-13761
▁remembering	-13762
▁establishing	-13763
▁psychologist	-13764
▁relentlessly	-13765
-8	-13766
AK	-13767
Sl	-13768
IND	-13769
RAP	-13770
URE	-13771
aro	-13772
bod	-13773
dro	-13774
uer	-13775
▁4)	-13776
▁DJ	-13777
hear	-13778
iane	-13779
much	-13780
vous	-13781
▁90%	-13782
▁Gov	-13783
▁Ish	-13784
▁Ker	-13785
▁LOL	-13786
▁Lie	-13787
▁Oct	-13788
▁Pia	-13789
▁Sgt	-13790
▁Zel	-13791
▁mim	-13792
▁ric	-13793
ailed	-13794
amour	-13795
andra	-13796
athom	-13797
happy	-13798
inski	-13799
lings	-13800
psons	-13801
utton	-13802
▁Duck	-13803
▁Edge	-13804
▁Glor	-13805
▁Juan	-13806
▁July	-13807
▁Mess	-13808
▁SHOW	-13809
▁bald	-13810
▁beef	-13811
▁begs	-13812
▁blob	-13813
▁exit	-13814
▁grip	-13815
▁harr	-13816
▁idol	-13817
▁mute	-13818
▁ware	-13819
scenes	-13820
struck	-13821
▁8/10.	-13822
▁Apoll	-13823
▁Arkin	-13824
▁Boliv	-13825
▁Claud	-13826
▁Clive	-13827
▁Guess	-13828
▁LOVED	-13829
▁Mafia	-13830
▁Monty	-13831
▁Rodri	-13832
▁STORY	-13833
▁Urban	-13834
▁Vince	-13835
▁agony	-13836
▁arche	-13837
▁bones	-13838
▁chill	-13839
▁clerk	-13840
▁dolls	-13841
▁manif	-13842
▁scant	-13843
▁slide	-13844
▁spray	-13845
▁stubb	-13846
▁whims	-13847
despite	-13848
landish	-13849
profess	-13850
▁Celest	-13851
▁Gamera	-13852
▁Giallo	-13853
▁Godard	-13854
▁Greene	-13855
▁Impact	-13856
▁Palest	-13857
▁Porter	-13858
▁abound	-13859
▁bounty	-13860
▁breast	-13861
▁empath	-13862
▁feeble	-13863
▁fields	-13864
▁fierce	-13865
▁filthy	-13866
▁injust	-13867
▁ordeal	-13868
▁skinny	-13869
▁sucker	-13870
▁upside	-13871
▁verbal	-13872
iciently	-13873
▁Anyways	-13874
▁Beowulf	-13875
▁Miranda	-13876
▁Northam	-13877
▁Phoenix	-13878
▁abandon	-13879
▁feeding	-13880
▁funding	-13881
▁masters	-13882
▁motions	-13883
▁privile	-13884
▁pursued	-13885
▁sources	-13886
▁tactics	-13887
▁tickets	-13888
▁Columbia	-13889
▁Kristoff	-13890
▁Producer	-13891
▁covering	-13892
▁dynamics	-13893
▁freaking	-13894
▁inadvert	-13895
▁indicate	-13896
▁minister	-13897
▁resident	-13898
▁starters	-13899
▁Ultimatum	-13900
▁ambitions	-13901
▁anthology	-13902
▁breathing	-13903
▁criticize	-13904
▁explosive	-13905
▁horrified	-13906
▁inclusion	-13907
▁neglected	-13908
▁obstacles	-13909
▁populated	-13910
▁sentences	-13911
▁unusually	-13912
▁Beckinsale	-13913
▁Regardless	-13914
▁noteworthy	-13915
▁pedestrian	-13916
▁unanswered	-13917
▁controlling	-13918
▁informative	-13919
▁realization	-13920
▁respectable	-13921
▁mysteriously	-13922
SH	-13923
ACE	-13924
Joe	-13925
Les	-13926
Mad	-13927
Now	-13928
Pal	-13929
Sam	-13930
cat	-13931
fem	-13932
gob	-13933
lda	-13934
▁"2	-13935
▁3,	-13936
eous	-13937
erve	-13938
guez	-13939
isen	-13940
lean	-13941
lent	-13942
pons	-13943
rine	-13944
umpy	-13945
wall	-13946
▁Ban	-13947
▁Buy	-13948
▁GOD	-13949
▁Gue	-13950
▁Lib	-13951
▁Roe	-13952
▁Sel	-13953
▁Sem	-13954
▁TCM	-13955
▁TER	-13956
▁dut	-13957
▁fer	-13958
dance	-13959
ician	-13960
level	-13961
odore	-13962
ornbl	-13963
owski	-13964
oyant	-13965
regor	-13966
▁1972	-13967
▁1996	-13968
▁Batt	-13969
▁Benj	-13970
▁Cond	-13971
▁Heck	-13972
▁Jedi	-13973
▁Kind	-13974
▁Lowe	-13975
▁Otto	-13976
▁Rene	-13977
▁Same	-13978
▁agon	-13979
▁cage	-13980
▁gate	-13981
▁masc	-13982
▁mold	-13983
▁nurs	-13984
▁soup	-13985
▁void	-13986
Return	-13987
anding	-13988
ansson	-13989
encing	-13990
former	-13991
umbled	-13992
▁7/10.	-13993
▁Conan	-13994
▁Edith	-13995
▁Jodie	-13996
▁Kirst	-13997
▁Loved	-13998
▁Miami	-13999
▁NIGHT	-14000
▁STILL	-14001
▁Vonne	-14002
▁Wrest	-14003
▁Zombi	-14004
▁alley	-14005
▁begun	-14006
▁clone	-14007
▁conco	-14008
▁flirt	-14009
▁hyped	-14010
▁manic	-14011
▁midst	-14012
▁panic	-14013
▁revis	-14014
▁royal	-14015
▁slack	-14016
▁smash	-14017
▁snuff	-14018
▁warns	-14019
▁wiped	-14020
iterate	-14021
omaniac	-14022
rospect	-14023
▁Creasy	-14024
▁Cypher	-14025
▁Ernest	-14026
▁Goldie	-14027
▁Hollow	-14028
▁Plenty	-14029
▁Sweden	-14030
▁Taking	-14031
▁Terror	-14032
▁Winner	-14033
▁Winter	-14034
▁attach	-14035
▁blamed	-14036
▁bosses	-14037
▁freaky	-14038
▁harass	-14039
▁hybrid	-14040
▁kidnap	-14041
▁morons	-14042
▁occult	-14043
▁overst	-14044
▁psyche	-14045
▁stance	-14046
▁varied	-14047
tersweet	-14048
▁Detroit	-14049
▁Gooding	-14050
▁Gwyneth	-14051
▁Iranian	-14052
▁Jacques	-14053
▁Lucille	-14054
▁forties	-14055
▁grabbed	-14056
▁novelty	-14057
▁parking	-14058
▁rejects	-14059
▁replies	-14060
▁request	-14061
▁stabbed	-14062
▁stalked	-14063
▁stating	-14064
entertain	-14065
erminator	-14066
ocalyptic	-14067
▁Stargate	-14068
▁Sundance	-14069
▁Venezuel	-14070
▁Visconti	-14071
▁avoiding	-14072
▁chemical	-14073
▁daylight	-14074
▁feminine	-14075
▁generate	-14076
▁momentum	-14077
▁pointing	-14078
▁products	-14079
▁Christina	-14080
▁discussed	-14081
▁exploding	-14082
▁exploited	-14083
▁followers	-14084
▁incidents	-14085
▁merciless	-14086
▁prejudice	-14087
▁relevance	-14088
▁scripting	-14089
▁Depression	-14090
▁aggressive	-14091
▁assignment	-14092
▁denouement	-14093
▁depictions	-14094
▁executives	-14095
▁possession	-14096
▁shockingly	-14097
▁suggesting	-14098
▁contestants	-14099
▁controversy	-14100
▁exclusively	-14101
▁Surprisingly	-14102
▁Thunderbirds	-14103
▁delightfully	-14104
▁excruciating	-14105
▁surroundings	-14106
Em	-14107
Gr	-14108
Of	-14109
?!?	-14110
ILD	-14111
RED	-14112
REE	-14113
Tar	-14114
War	-14115
aha	-14116
bes	-14117
bie	-14118
din	-14119
isk	-14120
ooo	-14121
pop	-14122
wit	-14123
▁95	-14124
▁AB	-14125
▁Ew	-14126
▁GR	-14127
▁MO	-14128
Look	-14129
TAIN	-14130
ackt	-14131
anta	-14132
best	-14133
dict	-14134
door	-14135
etle	-14136
five	-14137
grat	-14138
icer	-14139
icky	-14140
ilyn	-14141
imbo	-14142
nity	-14143
rice	-14144
uend	-14145
uire	-14146
viol	-14147
▁BET	-14148
▁BOR	-14149
▁Box	-14150
▁Rea	-14151
▁Tam	-14152
▁Web	-14153
▁caf	-14154
▁piv	-14155
▁pup	-14156
armed	-14157
iston	-14158
itors	-14159
onous	-14160
takes	-14161
twist	-14162
uropa	-14163
▁1983	-14164
▁Diet	-14165
▁Hawn	-14166
▁Kris	-14167
▁SOME	-14168
▁Sche	-14169
▁Vien	-14170
▁auth	-14171
▁burd	-14172
▁deer	-14173
▁gaps	-14174
▁meal	-14175
▁pans	-14176
▁pose	-14177
▁verb	-14178
▁zone	-14179
Murray	-14180
apture	-14181
people	-14182
perial	-14183
rendel	-14184
voiced	-14185
witted	-14186
▁Chang	-14187
▁Chong	-14188
▁Cross	-14189
▁Darth	-14190
▁Forsy	-14191
▁Hayes	-14192
▁Mandy	-14193
▁Money	-14194
▁Sammo	-14195
▁Scare	-14196
▁Wrong	-14197
▁clash	-14198
▁depra	-14199
▁fifth	-14200
▁haunt	-14201
▁items	-14202
▁joint	-14203
▁lends	-14204
▁murky	-14205
▁prank	-14206
▁quasi	-14207
▁recur	-14208
▁seats	-14209
▁traps	-14210
▁trump	-14211
▁tuned	-14212
athered	-14213
forming	-14214
▁Animal	-14215
▁Barbra	-14216
▁Claude	-14217
▁Colman	-14218
▁Garner	-14219
▁Hooper	-14220
▁Melody	-14221
▁Python	-14222
▁Reiser	-14223
▁Runner	-14224
▁Schwar	-14225
▁Shadow	-14226
▁Sounds	-14227
▁attrib	-14228
▁backed	-14229
▁campus	-14230
▁catast	-14231
▁dumped	-14232
▁glance	-14233
▁mighty	-14234
▁paints	-14235
▁raunch	-14236
▁rehash	-14237
▁resume	-14238
▁rounds	-14239
▁shifts	-14240
▁shrink	-14241
▁volume	-14242
ittingly	-14243
▁Beckham	-14244
▁Collins	-14245
▁DeMille	-14246
▁Goodman	-14247
▁Indiana	-14248
▁Lampoon	-14249
▁Netflix	-14250
▁Phantom	-14251
▁Randall	-14252
▁Revenge	-14253
▁Service	-14254
▁borders	-14255
▁cliched	-14256
▁descend	-14257
▁dumbest	-14258
▁frantic	-14259
▁innuend	-14260
▁lurking	-14261
▁macabre	-14262
▁periods	-14263
▁uncanny	-14264
▁virtual	-14265
abilities	-14266
adventure	-14267
▁Giovanna	-14268
▁Juliette	-14269
▁Penelope	-14270
▁Vampires	-14271
▁Vonnegut	-14272
▁arranged	-14273
▁artistry	-14274
▁capacity	-14275
▁deciding	-14276
▁meantime	-14277
▁plodding	-14278
▁rambling	-14279
▁schedule	-14280
▁Feinstone	-14281
▁Johansson	-14282
▁enigmatic	-14283
▁furniture	-14284
▁mythology	-14285
▁originals	-14286
▁principle	-14287
▁scenarios	-14288
▁sensation	-14289
▁translate	-14290
▁detectives	-14291
▁ironically	-14292
▁university	-14293
▁Renaissance	-14294
▁introducing	-14295
▁Additionally	-14296
▁inaccuracies	-14297
▁participants	-14298
▁Kristofferson	-14299
▁embarrassingly	-14300
/3	-14301
PP	-14302
VO	-14303
gi	-14304
ACT	-14305
AGE	-14306
Can	-14307
Car	-14308
Jul	-14309
OUT	-14310
ahi	-14311
bar	-14312
bro	-14313
ibe	-14314
iju	-14315
los	-14316
rec	-14317
ria	-14318
riz	-14319
tit	-14320
yon	-14321
▁28	-14322
▁MP	-14323
afoe	-14324
agin	-14325
akin	-14326
arte	-14327
clim	-14328
fare	-14329
fell	-14330
gone	-14331
holm	-14332
iler	-14333
inea	-14334
jack	-14335
llen	-14336
usch	-14337
wick	-14338
ymph	-14339
▁Ced	-14340
▁Faw	-14341
▁Jos	-14342
▁Moh	-14343
▁Pak	-14344
▁Pin	-14345
▁gee	-14346
▁lol	-14347
▁nun	-14348
▁que	-14349
▁tho	-14350
▁vic	-14351
Brien	-14352
enses	-14353
erman	-14354
ommel	-14355
polit	-14356
▁2002	-14357
▁2007	-14358
▁Azte	-14359
▁Guev	-14360
▁Madh	-14361
▁Vera	-14362
▁Zeal	-14363
▁bowl	-14364
▁clan	-14365
▁deft	-14366
▁hats	-14367
▁pant	-14368
▁prow	-14369
▁rips	-14370
▁rose	-14371
▁sinc	-14372
▁spit	-14373
▁wine	-14374
active	-14375
ardust	-14376
eating	-14377
lestar	-14378
marish	-14379
mighty	-14380
sworth	-14381
▁Aaron	-14382
▁Artem	-14383
▁Bauer	-14384
▁Brett	-14385
▁Gunga	-14386
▁Russo	-14387
▁blink	-14388
▁boost	-14389
▁burns	-14390
▁chron	-14391
▁cycle	-14392
▁downs	-14393
▁pains	-14394
▁pound	-14395
▁shift	-14396
▁synch	-14397
▁wings	-14398
ablanca	-14399
atching	-14400
ceptive	-14401
fighter	-14402
▁Blaise	-14403
▁Cannes	-14404
▁Debbie	-14405
▁Denise	-14406
▁Duchov	-14407
▁Finney	-14408
▁Hardly	-14409
▁Jersey	-14410
▁Olivia	-14411
▁Stiles	-14412
▁Wayans	-14413
▁bikini	-14414
▁gloomy	-14415
▁hinted	-14416
▁injury	-14417
▁linked	-14418
▁mentor	-14419
▁mutant	-14420
▁palace	-14421
▁papers	-14422
▁parade	-14423
▁phones	-14424
▁popped	-14425
▁resent	-14426
▁scarce	-14427
▁shades	-14428
▁sights	-14429
▁trauma	-14430
▁videot	-14431
********	-14432
Midnight	-14433
inducing	-14434
producer	-14435
▁Bennett	-14436
▁Fellini	-14437
▁Marilyn	-14438
▁Martino	-14439
▁Rosario	-14440
▁Streets	-14441
▁applies	-14442
▁carnage	-14443
▁eagerly	-14444
▁ignores	-14445
▁qualify	-14446
▁session	-14447
▁thieves	-14448
appealing	-14449
omination	-14450
▁Haunting	-14451
▁Simpsons	-14452
▁cheerful	-14453
▁economic	-14454
▁gestures	-14455
▁glimpses	-14456
▁medieval	-14457
▁relating	-14458
▁rewarded	-14459
▁thirties	-14460
▁upcoming	-14461
▁Entertain	-14462
▁ambiguity	-14463
▁extensive	-14464
▁festivals	-14465
▁graveyard	-14466
▁practical	-14467
▁reflected	-14468
▁releasing	-14469
▁suspicion	-14470
▁vignettes	-14471
▁forgetting	-14472
▁outlandish	-14473
▁resembling	-14474
▁resistance	-14475
▁bittersweet	-14476
▁deliciously	-14477
▁predictably	-14478
▁psychedelic	-14479
▁substantial	-14480
▁investigator	-14481
▁satisfaction	-14482
▁misunderstood	-14483
/4	-14484
?,	-14485
UB	-14486
sk	-14487
tt	-14488
Doo	-14489
Mel	-14490
ege	-14491
jor	-14492
mpt	-14493
ova	-14494
sim	-14495
▁BO	-14496
▁IQ	-14497
Home	-14498
Rose	-14499
abba	-14500
aria	-14501
coll	-14502
ingo	-14503
inky	-14504
jerk	-14505
lund	-14506
mart	-14507
moon	-14508
opez	-14509
scar	-14510
vere	-14511
yeah	-14512
▁40'	-14513
▁:-)	-14514
▁Ach	-14515
▁Bri	-14516
▁FUN	-14517
▁Gus	-14518
▁IMO	-14519
▁Kau	-14520
▁Kle	-14521
▁Lup	-14522
▁axe	-14523
▁gap	-14524
▁lum	-14525
▁upt	-14526
being	-14527
drawn	-14528
ellow	-14529
iator	-14530
iking	-14531
itous	-14532
izoph	-14533
jokes	-14534
oodoo	-14535
ourke	-14536
oused	-14537
phone	-14538
scene	-14539
uture	-14540
▁1936	-14541
▁1968	-14542
▁1997	-14543
▁Body	-14544
▁Bomb	-14545
▁Brig	-14546
▁Dahl	-14547
▁Krue	-14548
▁Liam	-14549
▁McAd	-14550
▁Niel	-14551
▁Nope	-14552
▁Thin	-14553
▁bias	-14554
▁craw	-14555
▁desk	-14556
▁diab	-14557
▁gasp	-14558
▁keys	-14559
▁mans	-14560
▁neut	-14561
▁taut	-14562
▁wart	-14563
ailand	-14564
arters	-14565
atered	-14566
fights	-14567
ienced	-14568
orical	-14569
oylent	-14570
reated	-14571
render	-14572
▁BLOOD	-14573
▁Combs	-14574
▁Corey	-14575
▁Dafoe	-14576
▁Dandy	-14577
▁Front	-14578
▁Hines	-14579
▁Locke	-14580
▁Lopez	-14581
▁Olsen	-14582
▁Tales	-14583
▁Using	-14584
▁WRONG	-14585
▁array	-14586
▁aspir	-14587
▁elite	-14588
▁fever	-14589
▁flamb	-14590
▁flour	-14591
▁mates	-14592
▁perce	-14593
▁snaps	-14594
▁union	-14595
▁unner	-14596
▁vault	-14597
▁worms	-14598
ouching	-14599
▁Basket	-14600
▁Coburn	-14601
▁Gannon	-14602
▁Making	-14603
▁Melvyn	-14604
▁Mormon	-14605
▁Myrtle	-14606
▁Natali	-14607
▁Review	-14608
▁Rohmer	-14609
▁Snipes	-14610
▁Sondra	-14611
▁Stella	-14612
▁Within	-14613
▁dreamy	-14614
▁excell	-14615
▁flames	-14616
▁invite	-14617
▁pounds	-14618
▁reconc	-14619
▁safely	-14620
illusion	-14621
izophren	-14622
▁Crystal	-14623
▁Dentist	-14624
▁Ferrell	-14625
▁altered	-14626
▁applied	-14627
▁caution	-14628
▁cooking	-14629
▁cunning	-14630
▁discipl	-14631
▁drowned	-14632
▁frontal	-14633
▁kingdom	-14634
▁nuanced	-14635
▁playful	-14636
▁resolve	-14637
▁reunite	-14638
▁roughly	-14639
▁serials	-14640
▁unclear	-14641
▁widowed	-14642
alifornia	-14643
▁Anything	-14644
▁Brashear	-14645
▁Exorcist	-14646
▁Gershwin	-14647
▁Midnight	-14648
▁administ	-14649
▁arriving	-14650
▁balanced	-14651
▁benefits	-14652
▁distaste	-14653
▁entrance	-14654
▁foremost	-14655
▁gigantic	-14656
▁invested	-14657
▁magician	-14658
▁paranoid	-14659
▁unstable	-14660
▁Blandings	-14661
▁Rodriguez	-14662
▁Silverman	-14663
▁Stephanie	-14664
▁addressed	-14665
▁candidate	-14666
▁diversity	-14667
▁intensely	-14668
▁lightning	-14669
▁maintains	-14670
▁necessity	-14671
▁revolving	-14672
▁screwball	-14673
▁boundaries	-14674
▁favourites	-14675
▁sufficient	-14676
▁acknowledge	-14677
▁consequence	-14678
▁handicapped	-14679
▁overbearing	-14680
▁pornography	-14681
▁realistically	-14682
NA	-14683
Ant	-14684
Ind	-14685
Mat	-14686
Old	-14687
Sil	-14688
VIL	-14689
aku	-14690
bly	-14691
ige	-14692
loe	-14693
rio	-14694
ulu	-14695
▁Dw	-14696
▁FO	-14697
Even	-14698
From	-14699
King	-14700
____	-14701
akis	-14702
arty	-14703
bath	-14704
bles	-14705
cers	-14706
enzo	-14707
fini	-14708
ichi	-14709
inst	-14710
isse	-14711
oche	-14712
otch	-14713
post	-14714
prom	-14715
uary	-14716
uese	-14717
zhin	-14718
▁Fab	-14719
▁GET	-14720
▁Hoo	-14721
▁Lon	-14722
▁Mos	-14723
▁Owl	-14724
▁Ple	-14725
▁Spy	-14726
▁Tyr	-14727
▁ber	-14728
▁maj	-14729
Movie	-14730
Super	-14731
White	-14732
argas	-14733
ashan	-14734
aside	-14735
astly	-14736
avery	-14737
enton	-14738
leine	-14739
rants	-14740
scape	-14741
uates	-14742
write	-14743
wrote	-14744
▁Chen	-14745
▁Cody	-14746
▁Dist	-14747
▁Gino	-14748
▁Lola	-14749
▁Mead	-14750
▁Mond	-14751
▁Omar	-14752
▁Soul	-14753
▁Suff	-14754
▁Tess	-14755
▁alot	-14756
▁auto	-14757
▁bats	-14758
▁grie	-14759
▁jock	-14760
▁mail	-14761
▁mand	-14762
▁mech	-14763
▁mins	-14764
▁pros	-14765
▁sway	-14766
▁taxi	-14767
▁unde	-14768
ardieu	-14769
atized	-14770
hinged	-14771
ington	-14772
irious	-14773
loving	-14774
redith	-14775
ternal	-14776
▁Angie	-14777
▁Cindy	-14778
▁Evans	-14779
▁Faith	-14780
▁Islam	-14781
▁Kathy	-14782
▁Opera	-14783
▁Seems	-14784
▁Vaugh	-14785
▁ample	-14786
▁artif	-14787
▁beard	-14788
▁bloss	-14789
▁burnt	-14790
▁concl	-14791
▁downt	-14792
▁epics	-14793
▁grind	-14794
▁north	-14795
▁reign	-14796
▁smell	-14797
▁snipp	-14798
▁stair	-14799
▁sunny	-14800
▁toned	-14801
Titanic	-14802
goblins	-14803
imately	-14804
inently	-14805
mouthed	-14806
parents	-14807
▁Garden	-14808
▁Jagger	-14809
▁Laputa	-14810
▁Massey	-14811
▁Reagan	-14812
▁Slater	-14813
▁Vargas	-14814
▁admits	-14815
▁assure	-14816
▁biting	-14817
▁bubble	-14818
▁deemed	-14819
▁evokes	-14820
▁frozen	-14821
▁hooker	-14822
▁payoff	-14823
▁pilots	-14824
▁planes	-14825
▁repris	-14826
▁sanity	-14827
▁shocks	-14828
▁slower	-14829
▁submar	-14830
▁unforg	-14831
▁waters	-14832
periment	-14833
▁Bernsen	-14834
▁Maureen	-14835
▁Monkeys	-14836
▁Muslims	-14837
▁Romance	-14838
▁Schwarz	-14839
▁Spoiler	-14840
▁furious	-14841
▁hippies	-14842
▁lunatic	-14843
▁monkeys	-14844
▁narciss	-14845
▁nations	-14846
▁perplex	-14847
▁prolong	-14848
▁quantum	-14849
▁repeats	-14850
▁rightly	-14851
▁robbers	-14852
▁shotgun	-14853
▁studied	-14854
▁suffice	-14855
▁targets	-14856
▁therapy	-14857
▁thereby	-14858
▁tightly	-14859
▁traffic	-14860
cessarily	-14861
▁Benjamin	-14862
▁McDonald	-14863
▁Meredith	-14864
▁Possibly	-14865
▁Thailand	-14866
▁chuckles	-14867
▁confined	-14868
▁controls	-14869
▁finishes	-14870
▁narrated	-14871
▁novelist	-14872
▁nutshell	-14873
▁realises	-14874
▁restrict	-14875
▁sketches	-14876
▁tomorrow	-14877
▁uniforms	-14878
▁veterans	-14879
▁Communist	-14880
▁Galactica	-14881
▁MacDonald	-14882
▁arrogance	-14883
▁customers	-14884
▁murderers	-14885
▁sincerity	-14886
▁skeptical	-14887
documentary	-14888
▁Incredible	-14889
▁Television	-14890
▁antagonist	-14891
▁displaying	-14892
▁enchanting	-14893
▁nauseating	-14894
▁overshadow	-14895
▁progressed	-14896
▁similarity	-14897
▁villainous	-14898
▁witnessing	-14899
▁interviewed	-14900
▁nightmarish	-14901
▁questioning	-14902
▁unappealing	-14903
▁hysterically	-14904
▁observations	-14905
▁determination	-14906
▁Cinematography	-14907
▁understatement	-14908
TS	-14909
ea	-14910
(19	-14911
ALK	-14912
Ali	-14913
Ser	-14914
bec	-14915
cor	-14916
eze	-14917
non	-14918
oak	-14919
sub	-14920
▁4,	-14921
▁MJ	-14922
▁Si	-14923
▁ok	-14924
IBLE	-14925
Life	-14926
Mary	-14927
Moon	-14928
OUSE	-14929
bird	-14930
folk	-14931
iate	-14932
ihil	-14933
izza	-14934
sets	-14935
take	-14936
ucci	-14937
uing	-14938
urst	-14939
ussy	-14940
ypse	-14941
▁Fry	-14942
▁Hir	-14943
▁Tib	-14944
▁bum	-14945
▁cad	-14946
▁mum	-14947
▁pic	-14948
▁ray	-14949
Blood	-14950
alike	-14951
first	-14952
ianni	-14953
illes	-14954
rsula	-14955
steps	-14956
tones	-14957
ulars	-14958
weigh	-14959
whose	-14960
zanne	-14961
▁Butt	-14962
▁Didn	-14963
▁Doug	-14964
▁Emil	-14965
▁Farn	-14966
▁Murd	-14967
▁Nora	-14968
▁Shat	-14969
▁Wins	-14970
▁coma	-14971
▁conn	-14972
▁faux	-14973
▁fier	-14974
▁gamb	-14975
▁gard	-14976
▁gymn	-14977
▁herd	-14978
▁mice	-14979
▁rapt	-14980
Batman	-14981
arting	-14982
inates	-14983
mation	-14984
stance	-14985
▁Adele	-14986
▁Daisy	-14987
▁Diego	-14988
▁Doesn	-14989
▁Levin	-14990
▁Place	-14991
▁Romeo	-14992
▁Truth	-14993
▁choir	-14994
▁embra	-14995
▁fruit	-14996
▁hills	-14997
▁illum	-14998
▁notor	-14999
▁parag	-15000
▁penal	-15001
▁sheep	-15002
▁spawn	-15003
▁stake	-15004
▁tones	-15005
appreci	-15006
culture	-15007
inarily	-15008
itivity	-15009
mblance	-15010
meaning	-15011
pionage	-15012
▁Barney	-15013
▁Battle	-15014
▁Bonnie	-15015
▁Bronte	-15016
▁Carlos	-15017
▁Cedric	-15018
▁Chance	-15019
▁Harron	-15020
▁Lionel	-15021
▁Liotta	-15022
▁Rourke	-15023
▁Scenes	-15024
▁Spinal	-15025
▁amidst	-15026
▁clunky	-15027
▁cookie	-15028
▁glossy	-15029
▁joking	-15030
▁junior	-15031
▁orange	-15032
▁pistol	-15033
▁rabbit	-15034
▁reserv	-15035
▁senior	-15036
▁sophom	-15037
▁sorrow	-15038
▁tunnel	-15039
centered	-15040
complete	-15041
educated	-15042
ocalypse	-15043
spirited	-15044
vability	-15045
▁Grendel	-15046
▁Guevara	-15047
▁Journey	-15048
▁Killers	-15049
▁Krueger	-15050
▁Redford	-15051
▁Seattle	-15052
▁Totally	-15053
▁Whereas	-15054
▁anytime	-15055
▁baddies	-15056
▁bastard	-15057
▁chaotic	-15058
[...]
